const unsigned char model[] = {
  0x1c, 0x00, 0x00, 0x00, 0x54, 0x46, 0x4c, 0x33, 0x00, 0x00, 0x12, 0x00,
  0x1c, 0x00, 0x04, 0x00, 0x08, 0x00, 0x0c, 0x00, 0x10, 0x00, 0x14, 0x00,
  0x00, 0x00, 0x18, 0x00, 0x12, 0x00, 0x00, 0x00, 0x03, 0x00, 0x00, 0x00,
  0xd0, 0x24, 0x00, 0x00, 0xdc, 0x1c, 0x00, 0x00, 0xc4, 0x1c, 0x00, 0x00,
  0x3c, 0x00, 0x00, 0x00, 0x04, 0x00, 0x00, 0x00, 0x01, 0x00, 0x00, 0x00,
  0x0c, 0x00, 0x00, 0x00, 0x08, 0x00, 0x0c, 0x00, 0x04, 0x00, 0x08, 0x00,
  0x08, 0x00, 0x00, 0x00, 0x08, 0x00, 0x00, 0x00, 0x0c, 0x00, 0x00, 0x00,
  0x13, 0x00, 0x00, 0x00, 0x6d, 0x69, 0x6e, 0x5f, 0x72, 0x75, 0x6e, 0x74,
  0x69, 0x6d, 0x65, 0x5f, 0x76, 0x65, 0x72, 0x73, 0x69, 0x6f, 0x6e, 0x00,
  0x0d, 0x00, 0x00, 0x00, 0x7c, 0x1c, 0x00, 0x00, 0x54, 0x1c, 0x00, 0x00,
  0xe8, 0x1b, 0x00, 0x00, 0x9c, 0x1b, 0x00, 0x00, 0xc4, 0x1a, 0x00, 0x00,
  0xbc, 0x1a, 0x00, 0x00, 0xb4, 0x1a, 0x00, 0x00, 0x34, 0x03, 0x00, 0x00,
  0x34, 0x00, 0x00, 0x00, 0x2c, 0x00, 0x00, 0x00, 0x24, 0x00, 0x00, 0x00,
  0x1c, 0x00, 0x00, 0x00, 0x04, 0x00, 0x00, 0x00, 0x1e, 0xe3, 0xff, 0xff,
  0x04, 0x00, 0x00, 0x00, 0x05, 0x00, 0x00, 0x00, 0x31, 0x2e, 0x35, 0x2e,
  0x30, 0x00, 0x00, 0x00, 0x00, 0xe3, 0xff, 0xff, 0x04, 0xe3, 0xff, 0xff,
  0x08, 0xe3, 0xff, 0xff, 0x3e, 0xe3, 0xff, 0xff, 0x04, 0x00, 0x00, 0x00,
  0xee, 0x02, 0x00, 0x00, 0x1e, 0x1f, 0x60, 0xf5, 0x04, 0x34, 0xc8, 0x2f,
  0xe1, 0x13, 0x38, 0xeb, 0x21, 0x09, 0x21, 0xf8, 0xe4, 0xe6, 0xe8, 0x05,
  0xd7, 0xeb, 0x07, 0x45, 0xeb, 0xe4, 0xfa, 0x18, 0xfd, 0x30, 0x05, 0x31,
  0x22, 0x21, 0x03, 0x08, 0xdc, 0x29, 0xf3, 0xc9, 0x25, 0xd2, 0x14, 0x02,
  0x15, 0xe7, 0x25, 0xeb, 0x05, 0x0d, 0xe0, 0x0f, 0xe0, 0x06, 0x1b, 0x0d,
  0x0d, 0xea, 0xee, 0x0b, 0x13, 0xf9, 0x19, 0x29, 0x1d, 0xd4, 0xed, 0xfb,
  0x0f, 0x01, 0x04, 0x03, 0xe8, 0xfc, 0x2a, 0xf2, 0x2b, 0xe8, 0x00, 0xf5,
  0x02, 0xe8, 0xfc, 0xd0, 0xf8, 0x28, 0xdf, 0x04, 0xf8, 0x1c, 0xe0, 0x0a,
  0xdf, 0xd4, 0x07, 0x0d, 0xeb, 0x04, 0xf9, 0x13, 0x07, 0xee, 0x1f, 0x0a,
  0x07, 0x20, 0x08, 0xfa, 0xfb, 0x35, 0x30, 0x0e, 0x2d, 0x33, 0xd7, 0x14,
  0xf3, 0xf3, 0x1d, 0x01, 0x18, 0x28, 0x08, 0x40, 0x31, 0xf6, 0x26, 0x21,
  0xd2, 0xd3, 0xe6, 0x00, 0x03, 0x02, 0xec, 0x1d, 0xe5, 0x36, 0x05, 0xff,
  0xf1, 0xdc, 0x1d, 0x0d, 0x2f, 0xe1, 0xdb, 0xf4, 0xf4, 0xe5, 0x01, 0x14,
  0xd5, 0x04, 0xfb, 0x25, 0xfb, 0xf0, 0xf0, 0xf6, 0xe3, 0xef, 0x14, 0x0b,
  0xf6, 0x05, 0x23, 0xff, 0x10, 0x11, 0x20, 0x00, 0xf7, 0xea, 0xee, 0xe2,
  0xd3, 0x0e, 0xdf, 0x17, 0x0f, 0x19, 0xef, 0x1f, 0xfd, 0x12, 0x0c, 0xe4,
  0x01, 0x26, 0xfb, 0xe0, 0xed, 0x02, 0x17, 0x0d, 0xec, 0x23, 0xfb, 0x1e,
  0x1d, 0x12, 0x1b, 0x05, 0xfe, 0xe9, 0x09, 0x09, 0x02, 0xee, 0x20, 0x19,
  0xec, 0xf6, 0xdb, 0xe0, 0x05, 0xfb, 0x22, 0x11, 0xdb, 0xf5, 0xdb, 0xfb,
  0x09, 0x1e, 0xe4, 0xef, 0xed, 0xd2, 0xea, 0x1a, 0x1a, 0xe5, 0x04, 0x19,
  0x1f, 0xf5, 0x16, 0x02, 0x13, 0xea, 0x10, 0xdd, 0xdb, 0x18, 0xea, 0xfc,
  0x1f, 0x1c, 0x1f, 0xc7, 0xcd, 0x00, 0xed, 0x18, 0xd0, 0xf2, 0x0a, 0xf0,
  0x20, 0xd6, 0x08, 0x33, 0xec, 0xf6, 0x01, 0xde, 0xef, 0x03, 0xc9, 0x03,
  0x1b, 0x2e, 0x10, 0x14, 0xfe, 0xd7, 0x09, 0xfa, 0x2d, 0xfe, 0x2d, 0xff,
  0x27, 0x1a, 0x2a, 0x28, 0xe5, 0x1a, 0x33, 0x0e, 0x04, 0x13, 0x27, 0xd5,
  0x01, 0x1b, 0xf5, 0x04, 0xca, 0xe8, 0xdd, 0xff, 0xde, 0xd6, 0xea, 0x2b,
  0xf2, 0xf0, 0xe3, 0xf7, 0x1b, 0xd6, 0xf3, 0x34, 0x25, 0xf2, 0xfc, 0x20,
  0xd8, 0x03, 0x4f, 0x03, 0xee, 0x0d, 0xfe, 0xce, 0x30, 0xfc, 0x23, 0xda,
  0xe7, 0xd4, 0x45, 0xff, 0x39, 0x1e, 0xf5, 0x28, 0x26, 0xf0, 0xbc, 0x18,
  0xe2, 0x49, 0xee, 0x45, 0x07, 0x09, 0xff, 0xd9, 0x1d, 0x21, 0xdf, 0x2d,
  0x2f, 0xc8, 0xf2, 0x01, 0xfc, 0x09, 0xfe, 0x22, 0x1f, 0x19, 0xfc, 0x1f,
  0x23, 0xf9, 0x39, 0x0f, 0xf4, 0x09, 0xd2, 0x3e, 0x21, 0x05, 0xb9, 0x10,
  0xfe, 0x1d, 0xed, 0x16, 0x18, 0x0e, 0x1a, 0x15, 0x05, 0xd6, 0x08, 0xd2,
  0xea, 0xd5, 0xf6, 0x07, 0x0b, 0x06, 0xe9, 0xfb, 0x2c, 0x2b, 0x3d, 0x0c,
  0xd9, 0x1c, 0xeb, 0x35, 0xf0, 0x38, 0x00, 0xf8, 0xfb, 0x1b, 0xd5, 0xe6,
  0xf8, 0xf5, 0x0e, 0xdf, 0x06, 0x2a, 0xc3, 0x37, 0x1a, 0xde, 0xee, 0x21,
  0xf3, 0xd7, 0x0f, 0xfb, 0xf1, 0x22, 0xc1, 0xfc, 0xc6, 0x40, 0xed, 0xe9,
  0x26, 0x0c, 0x08, 0x0b, 0xf4, 0xb2, 0x02, 0x01, 0xe2, 0x0f, 0x1b, 0x2b,
  0x25, 0xe1, 0xd6, 0x32, 0x0e, 0x0a, 0xe9, 0x08, 0x46, 0xe2, 0x12, 0x0f,
  0x3f, 0x15, 0x0e, 0x50, 0x07, 0xf2, 0x67, 0xe6, 0xd4, 0xe4, 0xf4, 0x58,
  0x17, 0x1d, 0xda, 0x7f, 0xfb, 0x06, 0xf7, 0x03, 0x05, 0xdf, 0xf8, 0xcd,
  0x01, 0xeb, 0xd3, 0xe6, 0x1d, 0xed, 0xca, 0x18, 0x36, 0xcd, 0xe7, 0x2b,
  0x1f, 0x2a, 0xda, 0x21, 0xfe, 0xf8, 0x11, 0x29, 0xf7, 0x04, 0xc7, 0x14,
  0x1a, 0xd6, 0x2d, 0x04, 0xf5, 0xe5, 0xd5, 0xda, 0x00, 0x15, 0xfb, 0x0b,
  0x00, 0xd0, 0xfc, 0xd7, 0x58, 0x15, 0xee, 0xec, 0xf5, 0xff, 0xd5, 0x27,
  0x13, 0x1b, 0xd8, 0x11, 0x34, 0x40, 0xdc, 0x55, 0x0c, 0x28, 0x1f, 0x08,
  0xff, 0x01, 0x0a, 0x13, 0x0c, 0x06, 0x2d, 0x1e, 0x06, 0x43, 0xfb, 0x21,
  0xd4, 0xff, 0x1c, 0x31, 0x00, 0xf9, 0xec, 0xdf, 0xe0, 0x13, 0x0e, 0xf3,
  0xd7, 0xf0, 0x12, 0xd9, 0x00, 0x16, 0x3e, 0xcc, 0xe3, 0xf2, 0x14, 0xfe,
  0xd8, 0x19, 0xb0, 0x32, 0x16, 0x2c, 0x13, 0x09, 0x0a, 0x05, 0x2b, 0x12,
  0xfb, 0x01, 0xf9, 0xf4, 0xfa, 0x23, 0x46, 0x0e, 0xef, 0x03, 0xd5, 0xe2,
  0xf8, 0x22, 0x12, 0xfc, 0xf7, 0x20, 0x03, 0xf9, 0xda, 0x2e, 0x1c, 0xd7,
  0x37, 0xe8, 0xd2, 0xcc, 0xee, 0x34, 0xfd, 0x0a, 0xee, 0x46, 0x17, 0xef,
  0xf7, 0x04, 0x35, 0x10, 0xe4, 0x06, 0x00, 0xf4, 0xeb, 0xc9, 0x0c, 0xcc,
  0x0f, 0xe5, 0x47, 0xdd, 0xda, 0xfc, 0xf9, 0xeb, 0xef, 0x1b, 0xf9, 0xfa,
  0x0b, 0x15, 0xf5, 0x0c, 0xfc, 0xe9, 0x2b, 0x15, 0xbf, 0x41, 0xe1, 0x0a,
  0xe4, 0x09, 0xed, 0x0c, 0x05, 0x2a, 0x27, 0xe2, 0x0c, 0xe9, 0x36, 0x98,
  0x05, 0x11, 0xef, 0xff, 0xf0, 0xf6, 0xe7, 0x1d, 0x15, 0x49, 0x1f, 0x0a,
  0xfd, 0x07, 0x11, 0x1a, 0xdb, 0x03, 0xf3, 0x20, 0x07, 0x19, 0x32, 0xe7,
  0xe9, 0x11, 0xf4, 0x0c, 0x2e, 0x3c, 0xfb, 0xde, 0x00, 0xef, 0x35, 0x10,
  0xfd, 0xde, 0xd0, 0xf1, 0xcc, 0x31, 0x1e, 0x43, 0x02, 0x10, 0x1a, 0xf7,
  0x26, 0x01, 0xdb, 0x17, 0xdc, 0xeb, 0x1d, 0x05, 0x1e, 0x19, 0x19, 0x04,
  0x31, 0x0b, 0x18, 0x50, 0xec, 0xe3, 0xe2, 0x06, 0xf5, 0x11, 0x00, 0x00,
  0x3a, 0xe6, 0xff, 0xff, 0x04, 0x00, 0x00, 0x00, 0x70, 0x17, 0x00, 0x00,
  0xd4, 0x2b, 0xdf, 0x28, 0x25, 0xff, 0xfe, 0x19, 0x43, 0x04, 0x1d, 0x04,
  0xf5, 0xea, 0xeb, 0xdd, 0x16, 0xd2, 0xbc, 0x2d, 0x2f, 0x0a, 0xfe, 0xf0,
  0x03, 0xe9, 0xf0, 0x1f, 0x0d, 0x11, 0xb4, 0xfa, 0x10, 0xd8, 0x2d, 0xfe,
  0xe2, 0xed, 0xf1, 0x07, 0xcd, 0x03, 0xd9, 0xef, 0x2b, 0xfc, 0x19, 0x26,
  0xde, 0xf0, 0x08, 0xfb, 0x16, 0xdb, 0x0a, 0x09, 0x0c, 0x33, 0xf0, 0xec,
  0xed, 0x04, 0x16, 0xf2, 0xf8, 0x15, 0xfe, 0xf9, 0x40, 0x1b, 0x33, 0x10,
  0x1b, 0xed, 0x39, 0x10, 0x1a, 0xdd, 0x12, 0xf5, 0x01, 0xdb, 0xf0, 0xfa,
  0xd9, 0x2d, 0x37, 0x20, 0x02, 0xe5, 0x05, 0x35, 0x29, 0x0e, 0x02, 0x09,
  0xcb, 0x3e, 0x24, 0xf4, 0xeb, 0x2d, 0xd9, 0xfd, 0x2a, 0x36, 0xf4, 0x14,
  0xf1, 0x38, 0xf4, 0xd9, 0x26, 0x05, 0xfb, 0xea, 0x29, 0xf6, 0x06, 0x0e,
  0x27, 0x0b, 0x16, 0xd8, 0x30, 0x14, 0xdc, 0xeb, 0x31, 0xfc, 0x26, 0xec,
  0xf7, 0xfb, 0x11, 0xf9, 0x03, 0xe7, 0x9b, 0xe9, 0x0a, 0xfb, 0xe7, 0xdd,
  0xd9, 0xf8, 0xf1, 0xf7, 0x11, 0xec, 0xd0, 0x29, 0xfd, 0xda, 0x0c, 0x03,
  0x9c, 0x2a, 0x1a, 0xf1, 0xed, 0xea, 0xd3, 0x0e, 0x0e, 0xfd, 0x05, 0xd2,
  0xb9, 0x21, 0xca, 0xf7, 0x0d, 0xe4, 0xcb, 0x0a, 0xc8, 0xed, 0x15, 0x38,
  0x0b, 0x10, 0xd2, 0x29, 0x0a, 0x2d, 0xbb, 0xf4, 0x32, 0xfd, 0x32, 0x1b,
  0xea, 0xc0, 0x35, 0x21, 0xeb, 0x1d, 0xde, 0x17, 0xd2, 0xdc, 0xfc, 0x04,
  0xe6, 0x05, 0x09, 0xf6, 0xd8, 0xfb, 0xee, 0x11, 0xe7, 0xf4, 0x1d, 0xe4,
  0x18, 0xf1, 0x0a, 0xf8, 0xf1, 0x14, 0x1f, 0xf2, 0xe5, 0x24, 0xec, 0xed,
  0x22, 0x03, 0xf4, 0x2f, 0x26, 0x32, 0x0e, 0xdf, 0xf1, 0x0e, 0xf4, 0xf6,
  0xfd, 0xba, 0xfa, 0x15, 0xd4, 0x03, 0xfd, 0xac, 0x27, 0xf2, 0x09, 0xd7,
  0xe0, 0xd5, 0x1c, 0xfe, 0xf9, 0xd4, 0xe1, 0xd0, 0x20, 0xe7, 0x35, 0xeb,
  0xd2, 0x0c, 0x00, 0xd6, 0xf4, 0x03, 0xab, 0xf6, 0x41, 0x22, 0x00, 0xf3,
  0x81, 0x1b, 0x15, 0x17, 0x14, 0xe5, 0xd9, 0x31, 0x11, 0x01, 0x0b, 0xe0,
  0xe2, 0x34, 0x19, 0x13, 0x06, 0xff, 0x9b, 0x31, 0xfe, 0x0f, 0xe1, 0xfe,
  0x98, 0x10, 0x0e, 0xf2, 0x14, 0xe4, 0xcb, 0x2e, 0x08, 0xff, 0xfc, 0x0e,
  0x9f, 0x57, 0x27, 0xf3, 0xe4, 0xf2, 0xbe, 0x36, 0x1b, 0x38, 0xee, 0xf3,
  0xee, 0x50, 0x4d, 0xf8, 0x0e, 0x1b, 0xf6, 0x34, 0xec, 0xce, 0x1e, 0x04,
  0xd3, 0xf8, 0x15, 0xeb, 0x0f, 0x04, 0xd5, 0x27, 0x28, 0xe3, 0xf4, 0x3e,
  0xcd, 0x41, 0x19, 0xf5, 0x11, 0x15, 0xcb, 0x0a, 0x15, 0xf8, 0x05, 0x12,
  0xfa, 0x15, 0x0a, 0x1b, 0xfe, 0xe9, 0x16, 0x1d, 0x1e, 0xec, 0x25, 0xdd,
  0x1e, 0xcb, 0x11, 0xfc, 0x04, 0x0e, 0x01, 0x04, 0xfb, 0xfd, 0xe0, 0xfd,
  0xf6, 0xfc, 0xe9, 0xe6, 0x0c, 0xfe, 0x08, 0xfd, 0xf1, 0x2e, 0xe7, 0x27,
  0xc4, 0xd4, 0x15, 0x0c, 0x01, 0xfc, 0xff, 0xd7, 0xea, 0x15, 0xe2, 0x28,
  0x24, 0xfb, 0xf8, 0x31, 0x0a, 0xda, 0xc6, 0xc5, 0xf9, 0xec, 0x02, 0xf9,
  0x0a, 0xdf, 0xee, 0x04, 0x02, 0xdb, 0xfb, 0xce, 0x10, 0x37, 0x08, 0xe6,
  0xf2, 0xcb, 0xf5, 0xe0, 0x09, 0x0f, 0x0f, 0x15, 0xcf, 0x22, 0x06, 0xfc,
  0x06, 0x0f, 0x03, 0xec, 0xd7, 0xf6, 0x19, 0x0a, 0x2c, 0x1f, 0xf9, 0xe8,
  0xfd, 0xe8, 0x0b, 0x0f, 0xdb, 0xeb, 0xc9, 0xf3, 0x18, 0x0a, 0xfc, 0xf3,
  0x23, 0xff, 0x25, 0xd5, 0xe4, 0x2c, 0x1a, 0xfb, 0xd1, 0xdc, 0x02, 0x10,
  0xf3, 0x2b, 0x3b, 0xfe, 0x28, 0xd7, 0x18, 0xf8, 0x01, 0xec, 0xe5, 0x04,
  0x01, 0xd8, 0xe8, 0x1f, 0x09, 0xf4, 0x1f, 0xd3, 0xd1, 0xe7, 0x04, 0xcd,
  0xf3, 0x06, 0xe6, 0x16, 0xcd, 0x0e, 0x0d, 0x09, 0x37, 0xfd, 0xed, 0x1b,
  0x1b, 0x28, 0xe5, 0xe1, 0x09, 0x07, 0x04, 0x09, 0x17, 0xfe, 0x0c, 0xca,
  0x04, 0xf0, 0x33, 0xe7, 0xd4, 0xf1, 0x0c, 0xe6, 0xd8, 0x13, 0xcf, 0x09,
  0xff, 0x08, 0x01, 0xfc, 0x15, 0x07, 0xef, 0xfb, 0xe8, 0x14, 0xde, 0xc7,
  0x0e, 0x29, 0xf7, 0x1d, 0x24, 0x16, 0x10, 0xf8, 0xd3, 0xda, 0xf1, 0x06,
  0x08, 0xf9, 0x34, 0x08, 0x2f, 0xfc, 0xec, 0x28, 0x22, 0xf7, 0x1a, 0x12,
  0xf6, 0x01, 0x01, 0xe1, 0xf7, 0xd9, 0xed, 0xe9, 0xd9, 0xee, 0x26, 0xf2,
  0x11, 0xfb, 0x08, 0x2a, 0x2a, 0xd0, 0x0f, 0xe9, 0x28, 0xdd, 0x1e, 0xf8,
  0x18, 0x17, 0x25, 0x09, 0xdb, 0x04, 0xd3, 0x0e, 0x09, 0xd4, 0x2d, 0x0a,
  0xf0, 0xfc, 0xf7, 0x08, 0x24, 0xc6, 0xf4, 0xee, 0x28, 0x12, 0x10, 0x03,
  0x0f, 0x04, 0x20, 0xc9, 0xe2, 0x05, 0xc8, 0x1a, 0x33, 0x18, 0x06, 0x05,
  0xd9, 0xf0, 0x30, 0xfc, 0x07, 0x0e, 0xe6, 0x28, 0x02, 0xff, 0xec, 0xe8,
  0xe6, 0xfb, 0x16, 0xfa, 0xfa, 0x18, 0xc0, 0x04, 0x0c, 0x0b, 0x11, 0xe0,
  0xe9, 0x04, 0x07, 0xf5, 0xdf, 0x1d, 0xd8, 0x1e, 0x0a, 0x1e, 0xfa, 0xdd,
  0xf0, 0xf7, 0x17, 0xee, 0x04, 0xf1, 0xdb, 0x2a, 0x19, 0x10, 0xf8, 0xfa,
  0xea, 0x31, 0x15, 0x28, 0x23, 0xfe, 0xfe, 0x38, 0x36, 0x00, 0x0f, 0xdc,
  0x07, 0x45, 0x14, 0xf7, 0xe9, 0x02, 0x08, 0x15, 0x51, 0x1c, 0xf6, 0xf6,
  0x03, 0x2a, 0x2a, 0xfe, 0x0b, 0x20, 0xde, 0xf4, 0xe0, 0xc7, 0x0e, 0x0f,
  0x3e, 0x12, 0x3c, 0xf1, 0x31, 0x08, 0xf4, 0x06, 0xe7, 0x1b, 0xee, 0x25,
  0x45, 0x17, 0x0e, 0x12, 0xef, 0x00, 0xe5, 0x0f, 0xeb, 0x30, 0xf4, 0x0f,
  0x04, 0xf0, 0xe3, 0x23, 0xe5, 0x30, 0x26, 0xed, 0x27, 0x10, 0xdd, 0xe6,
  0x1a, 0xfa, 0xce, 0x1c, 0x37, 0xfb, 0xf6, 0x04, 0xdd, 0xf3, 0xfc, 0xf5,
  0x1a, 0xfd, 0x2a, 0xf6, 0x1b, 0xe8, 0xf9, 0xf4, 0x13, 0xff, 0xd1, 0xfd,
  0xd2, 0x0b, 0xcb, 0x1a, 0xe1, 0xf2, 0x28, 0xf5, 0xde, 0x1f, 0xea, 0xf7,
  0x03, 0xe9, 0xc3, 0xf6, 0x13, 0xe9, 0x0a, 0x10, 0xdb, 0xf5, 0x1f, 0x12,
  0xf2, 0xdc, 0x1f, 0x0d, 0xd5, 0xea, 0x16, 0xcd, 0xe8, 0x29, 0xd5, 0x03,
  0xca, 0xf2, 0xc7, 0x2a, 0x04, 0xf8, 0xe0, 0xed, 0x20, 0x0e, 0xe2, 0xd1,
  0xe6, 0xbe, 0xea, 0xc4, 0xe8, 0xf1, 0x12, 0xed, 0xfe, 0x06, 0xec, 0xfb,
  0xfe, 0x44, 0x2f, 0x05, 0x10, 0xe7, 0xd8, 0x0b, 0x0b, 0x18, 0x1a, 0xf8,
  0xe5, 0xf0, 0x06, 0x08, 0xf1, 0x07, 0xbb, 0xda, 0x23, 0xe1, 0xcc, 0xf3,
  0xc3, 0x07, 0x1f, 0x33, 0xd9, 0x04, 0xd1, 0xe6, 0x2a, 0x05, 0xd3, 0xd6,
  0xc9, 0x00, 0x00, 0xe5, 0x07, 0xe0, 0x9f, 0xea, 0xe5, 0xe8, 0xe4, 0xf9,
  0xe9, 0xbe, 0xcf, 0x10, 0x03, 0x17, 0xe2, 0xb7, 0x01, 0xc7, 0x08, 0x12,
  0xdb, 0xe1, 0xf1, 0xf1, 0x2c, 0x24, 0xe9, 0xb8, 0x1a, 0x03, 0xd9, 0x12,
  0x11, 0xce, 0xfd, 0xe9, 0xe4, 0xfb, 0xe5, 0xd7, 0x0b, 0x3a, 0xe2, 0x04,
  0x0b, 0xe1, 0x25, 0xc7, 0x10, 0x24, 0xde, 0x02, 0xd7, 0xf5, 0xfa, 0xfe,
  0xf7, 0xf5, 0x28, 0xee, 0xfb, 0x05, 0xd6, 0xd9, 0x34, 0xe5, 0x00, 0xfe,
  0xff, 0xf6, 0xd5, 0x24, 0xd5, 0x0a, 0x28, 0x04, 0x37, 0xf3, 0x1e, 0x08,
  0xfa, 0x13, 0x06, 0xff, 0x07, 0x0b, 0x18, 0xf3, 0xd0, 0xf8, 0x20, 0xec,
  0x0b, 0x2e, 0xfd, 0xe1, 0xf8, 0x11, 0x15, 0xe2, 0xf4, 0x3c, 0xf0, 0x31,
  0x2a, 0x05, 0xeb, 0xfd, 0x12, 0xe6, 0xfb, 0x22, 0xea, 0x0c, 0x28, 0xd3,
  0xf5, 0xea, 0x0d, 0xdf, 0xcf, 0xf6, 0xfb, 0xf6, 0xf8, 0xf5, 0x1a, 0xfb,
  0x0e, 0x0c, 0xf0, 0xde, 0x21, 0xe9, 0x2b, 0xee, 0xe8, 0x13, 0xf8, 0xfd,
  0xe0, 0x08, 0x20, 0xc7, 0xec, 0xfc, 0x0f, 0x11, 0xfb, 0x0b, 0xca, 0x22,
  0x25, 0xf8, 0xf7, 0x1c, 0xef, 0xec, 0x1b, 0x05, 0xf7, 0xf0, 0xf8, 0x23,
  0x13, 0xf9, 0x0a, 0xfb, 0x28, 0xfe, 0x00, 0xfe, 0xcc, 0xda, 0xe4, 0x0b,
  0x26, 0x12, 0xe9, 0xf9, 0x15, 0x08, 0xfe, 0xee, 0x0d, 0x08, 0xe1, 0x0d,
  0xdf, 0x1e, 0x03, 0xfd, 0x12, 0xfd, 0xf7, 0x07, 0xfa, 0x02, 0xfd, 0x25,
  0x28, 0xf8, 0x1e, 0x2a, 0xef, 0x08, 0xf7, 0xbe, 0x24, 0x16, 0xf4, 0x18,
  0xdf, 0xec, 0x03, 0x1a, 0xd4, 0x0f, 0xe4, 0xdc, 0x3c, 0x19, 0x1c, 0xfa,
  0x0e, 0x10, 0x1c, 0x09, 0x03, 0x1e, 0xdf, 0x0d, 0x3c, 0xf4, 0xf9, 0x1c,
  0xc0, 0xe5, 0xed, 0xf9, 0xf0, 0x33, 0xae, 0x0e, 0x51, 0xde, 0x15, 0x1c,
  0xe0, 0x13, 0xf3, 0xd7, 0x1e, 0xfb, 0xbd, 0x10, 0xeb, 0x21, 0xde, 0xe6,
  0xe4, 0xea, 0x39, 0xd2, 0xe1, 0xec, 0xe9, 0x34, 0xda, 0x38, 0x20, 0x0f,
  0xce, 0xf4, 0x20, 0xf3, 0xf0, 0xf2, 0xcf, 0xdf, 0xf9, 0xdf, 0xed, 0x03,
  0xdc, 0x0a, 0x3d, 0xf9, 0x1f, 0xfc, 0xde, 0x0a, 0x11, 0x05, 0xdf, 0x1c,
  0xd2, 0x04, 0x15, 0x28, 0xe9, 0xf1, 0x24, 0x1f, 0x1a, 0xe7, 0x08, 0x0d,
  0xfc, 0x0e, 0x23, 0x00, 0xea, 0xcd, 0xdb, 0x2c, 0x1c, 0x16, 0xee, 0xfb,
  0x0a, 0xfc, 0xef, 0x04, 0xcc, 0x14, 0xeb, 0xfa, 0xcc, 0x06, 0xcc, 0xe7,
  0x0a, 0xc5, 0xea, 0xed, 0xe0, 0xcd, 0x02, 0x0d, 0x07, 0x25, 0xf4, 0x09,
  0x30, 0x09, 0x11, 0x1c, 0x1f, 0x0d, 0xf8, 0xed, 0x26, 0xf9, 0x0d, 0xe3,
  0x27, 0x29, 0x3c, 0xe5, 0x28, 0xfd, 0x1d, 0xdd, 0x2c, 0x05, 0x1e, 0xeb,
  0xdc, 0x1d, 0x0c, 0x0e, 0xdf, 0xe4, 0xd2, 0x14, 0xe5, 0x0c, 0x01, 0xbf,
  0xf0, 0x54, 0x0a, 0xfe, 0x1b, 0xfe, 0xf7, 0x0e, 0x30, 0x1d, 0x05, 0x0f,
  0xd1, 0x3f, 0x01, 0xf4, 0xec, 0x02, 0xef, 0x24, 0x18, 0xe4, 0xcc, 0xe0,
  0xed, 0x1f, 0x04, 0x0d, 0x03, 0xf9, 0xd1, 0x36, 0x37, 0xd2, 0x0a, 0x1f,
  0xae, 0x4c, 0xfc, 0x1e, 0x09, 0xdd, 0xf0, 0x09, 0x4e, 0x0c, 0xf4, 0x03,
  0x05, 0x49, 0x03, 0xd2, 0xfc, 0x00, 0xc9, 0x0f, 0x16, 0xff, 0xfd, 0x00,
  0xd0, 0xf0, 0x28, 0xfa, 0xfb, 0xd3, 0x11, 0x11, 0x36, 0xfc, 0xef, 0x1f,
  0xf0, 0x01, 0xe4, 0x28, 0x35, 0xd3, 0x12, 0xf0, 0xed, 0x2f, 0xfb, 0x23,
  0x2d, 0x32, 0xfb, 0x02, 0x09, 0x0c, 0x32, 0xf7, 0x0d, 0xd9, 0x25, 0xf3,
  0x19, 0xed, 0xea, 0xdc, 0xf0, 0xe1, 0x18, 0x1b, 0x2c, 0xea, 0x0b, 0x14,
  0xfb, 0xdb, 0x0d, 0xc6, 0xf8, 0xdc, 0xfb, 0x2c, 0x0b, 0x2f, 0x0c, 0xf9,
  0x03, 0xf2, 0x0f, 0xd4, 0xf3, 0x14, 0xff, 0xeb, 0x11, 0x07, 0x2a, 0xfc,
  0xf3, 0x02, 0xee, 0x1b, 0xd3, 0x02, 0x11, 0x19, 0x05, 0xcd, 0xe8, 0xd0,
  0xee, 0x10, 0x00, 0x06, 0x0b, 0x1f, 0x39, 0x07, 0xda, 0x05, 0x0a, 0xfe,
  0x05, 0xf8, 0x0c, 0x04, 0x0d, 0xdc, 0x04, 0x13, 0xca, 0xf3, 0x1a, 0xff,
  0x23, 0x15, 0xf1, 0x30, 0x18, 0x0c, 0x01, 0xee, 0x00, 0xde, 0x08, 0x05,
  0x00, 0x14, 0x0e, 0x0d, 0xee, 0xd6, 0x19, 0xf8, 0x0e, 0x2f, 0xf3, 0xd3,
  0xfb, 0xe2, 0x3e, 0x15, 0x09, 0x30, 0xff, 0x2f, 0x11, 0x21, 0x06, 0x16,
  0x27, 0xd9, 0xf5, 0xf3, 0x0b, 0x1b, 0xd5, 0xea, 0x00, 0xce, 0xce, 0x32,
  0xd9, 0x00, 0xf9, 0x32, 0x04, 0xfc, 0xf9, 0xe5, 0x3a, 0x0b, 0xee, 0x1a,
  0x2d, 0x03, 0x0e, 0xe8, 0x24, 0x01, 0xf4, 0xc2, 0x00, 0x2a, 0x18, 0xd2,
  0xe7, 0xfe, 0xf8, 0xf3, 0xe9, 0xc8, 0xd7, 0xd5, 0x08, 0xdf, 0xe5, 0xe0,
  0x08, 0xe0, 0xfb, 0xf7, 0xfa, 0xd7, 0xeb, 0xe1, 0x3e, 0x1a, 0x12, 0x02,
  0x0f, 0x13, 0x3a, 0x0c, 0x06, 0x1a, 0xc6, 0xdf, 0xf1, 0xe1, 0x18, 0xdf,
  0xff, 0xfe, 0x02, 0x17, 0xff, 0xff, 0x13, 0x03, 0x16, 0x07, 0xfa, 0xf9,
  0xeb, 0xd7, 0x34, 0x09, 0x0c, 0xf6, 0xd5, 0xfe, 0x03, 0xe4, 0xf3, 0xfc,
  0xff, 0x1a, 0x2d, 0xeb, 0x07, 0x2e, 0x28, 0x20, 0x09, 0x0f, 0x03, 0x28,
  0x11, 0xca, 0x06, 0xce, 0xf3, 0xe6, 0x28, 0x03, 0x26, 0xf8, 0x03, 0xfd,
  0x03, 0xfe, 0x3e, 0xe4, 0x07, 0xf0, 0x1b, 0xf6, 0x19, 0x03, 0x3d, 0xfc,
  0xda, 0xfc, 0x13, 0x17, 0xf5, 0xeb, 0xd8, 0xdb, 0xf6, 0xeb, 0xfe, 0xcd,
  0xed, 0xc4, 0x14, 0xe5, 0xf5, 0xd4, 0xc2, 0xfa, 0x27, 0x33, 0xec, 0xed,
  0xd2, 0x01, 0x30, 0xf7, 0xef, 0x01, 0xe1, 0x2b, 0x18, 0x18, 0x17, 0xe8,
  0xd2, 0x19, 0x19, 0xf7, 0x0b, 0x12, 0xed, 0x07, 0x05, 0xe4, 0xed, 0xe4,
  0x06, 0x53, 0x49, 0xea, 0xf7, 0x1b, 0xc6, 0x34, 0xef, 0xe5, 0x07, 0x01,
  0x1f, 0x37, 0x52, 0x0e, 0xdd, 0xfa, 0xe8, 0x0e, 0x23, 0xfd, 0x19, 0x21,
  0x07, 0x36, 0xf4, 0xec, 0x11, 0x15, 0x03, 0x2c, 0x26, 0xff, 0x15, 0xf4,
  0xdb, 0x0b, 0xe7, 0xd6, 0x13, 0xd3, 0xd2, 0xca, 0x03, 0xf9, 0xe0, 0xd9,
  0xc2, 0x1d, 0xfe, 0x35, 0x1c, 0xd3, 0xfc, 0x31, 0xd4, 0x11, 0xed, 0x1f,
  0xf5, 0x21, 0xc3, 0xe0, 0xeb, 0xd5, 0xe6, 0x1e, 0xd7, 0x15, 0xee, 0x03,
  0xe5, 0x2f, 0xb4, 0xf4, 0xe7, 0xf9, 0xe7, 0x21, 0xe7, 0xdc, 0xd3, 0x1b,
  0xeb, 0x15, 0xeb, 0xf8, 0xd0, 0x34, 0xce, 0x35, 0xfd, 0xfd, 0xdb, 0x0c,
  0xf6, 0x25, 0x0c, 0x0d, 0xe3, 0x08, 0xc9, 0x36, 0xe1, 0x1b, 0xe5, 0xf9,
  0xf6, 0xd6, 0xf7, 0xf2, 0xf1, 0x13, 0xec, 0xf3, 0xcf, 0x1a, 0xe9, 0xe9,
  0x0b, 0x26, 0xe6, 0xf8, 0x21, 0x32, 0xd7, 0xfe, 0x03, 0x15, 0xf9, 0x17,
  0xc3, 0x11, 0xea, 0xfa, 0xe8, 0x1c, 0xeb, 0x0d, 0x12, 0xf1, 0x1a, 0x37,
  0x00, 0x03, 0xe8, 0x04, 0xf0, 0x0a, 0xe1, 0x25, 0xeb, 0xe0, 0xe2, 0xca,
  0xf2, 0x15, 0x25, 0x02, 0xd7, 0x1c, 0x18, 0x08, 0x1a, 0x21, 0x16, 0x18,
  0x2a, 0xfe, 0x1f, 0xf2, 0xf6, 0x3b, 0x13, 0x0d, 0xed, 0x13, 0x28, 0x0b,
  0x2f, 0xc4, 0xf3, 0x10, 0x2d, 0xef, 0x26, 0xe0, 0x04, 0x02, 0xfd, 0xf2,
  0x23, 0xbc, 0xcd, 0x28, 0x28, 0xec, 0x0e, 0xdd, 0x19, 0xde, 0xf8, 0x22,
  0xd8, 0x0f, 0xf9, 0xfd, 0x05, 0xfb, 0x05, 0xda, 0xe2, 0xea, 0xf2, 0x3b,
  0xef, 0xc2, 0xff, 0xfb, 0xef, 0xf7, 0xe2, 0xd1, 0x2e, 0x00, 0x1e, 0xe3,
  0x2f, 0xf2, 0xec, 0x11, 0x1a, 0x1e, 0xfd, 0xf4, 0x21, 0xd4, 0x02, 0xe7,
  0xf2, 0xd7, 0xc6, 0x20, 0xf1, 0x12, 0x0b, 0xdb, 0xf5, 0x07, 0x17, 0x09,
  0x04, 0xff, 0xf8, 0xe9, 0xfa, 0xd9, 0xe1, 0xd0, 0xe4, 0x2b, 0xeb, 0xf5,
  0x24, 0xf7, 0x11, 0xf1, 0x38, 0xcc, 0xcb, 0xec, 0xf7, 0x08, 0x06, 0xe5,
  0x13, 0xeb, 0x0f, 0xfe, 0xfe, 0xe0, 0x1f, 0xeb, 0x2f, 0xf7, 0x0d, 0x09,
  0x30, 0x02, 0xed, 0x0e, 0x15, 0x0e, 0xf4, 0x07, 0x19, 0xec, 0x0f, 0x1d,
  0x21, 0xf0, 0x02, 0xfa, 0xf9, 0x0a, 0xdf, 0xed, 0xfc, 0xff, 0x10, 0x15,
  0x2f, 0xfe, 0xfb, 0xea, 0xe5, 0x35, 0x09, 0xf0, 0x13, 0x10, 0xde, 0xeb,
  0xfd, 0x0b, 0x1a, 0xe0, 0x0b, 0xfa, 0xf0, 0x11, 0x02, 0x10, 0x0c, 0x0d,
  0x38, 0xbf, 0xf7, 0x2e, 0xe3, 0x34, 0x03, 0x27, 0xfa, 0xd4, 0xe4, 0x00,
  0x17, 0x0a, 0xe3, 0x14, 0x0b, 0xec, 0xe8, 0x0a, 0xfe, 0x02, 0x13, 0x08,
  0x09, 0xcb, 0x03, 0x0d, 0xe4, 0x22, 0xe0, 0x06, 0xe6, 0x0e, 0x0b, 0xdb,
  0xfb, 0xdc, 0xfe, 0xe8, 0x0e, 0xe5, 0x07, 0xd5, 0x0d, 0x15, 0x1d, 0xea,
  0x02, 0x00, 0xd9, 0xf1, 0xd8, 0xe0, 0xf5, 0xbf, 0x0b, 0x16, 0xf4, 0x19,
  0xdd, 0x0d, 0x07, 0x0c, 0xef, 0x02, 0x12, 0xce, 0xfe, 0x13, 0x0b, 0xde,
  0xf8, 0x35, 0xd6, 0x0c, 0xf5, 0xbf, 0xf9, 0x20, 0xc8, 0xfd, 0xd4, 0x06,
  0xf6, 0x29, 0x0b, 0x08, 0x2e, 0xd5, 0x2c, 0x0b, 0x0f, 0x17, 0x1d, 0xf7,
  0x0b, 0x3e, 0x18, 0x31, 0xf6, 0x09, 0xc2, 0x50, 0xec, 0x33, 0xd5, 0xce,
  0xed, 0x29, 0xfa, 0xe6, 0x20, 0xd6, 0xc6, 0x5c, 0x01, 0xde, 0x15, 0xef,
  0xf9, 0x37, 0x1f, 0x07, 0xd4, 0x23, 0xe9, 0x29, 0x21, 0x05, 0xeb, 0x1c,
  0x33, 0x42, 0xf8, 0xf8, 0xee, 0x14, 0x1d, 0x1d, 0xed, 0x18, 0x02, 0xec,
  0xfa, 0x4a, 0x1f, 0x19, 0x02, 0x10, 0x1d, 0x2c, 0xee, 0xf6, 0x1e, 0xe7,
  0xeb, 0x45, 0xf4, 0xec, 0x1e, 0x0c, 0xdf, 0x00, 0x2b, 0x1a, 0xe6, 0xf2,
  0x06, 0x19, 0xf8, 0x26, 0xe1, 0x13, 0x05, 0x38, 0xfd, 0x2e, 0x1a, 0x1f,
  0xdb, 0x07, 0x23, 0xe3, 0x21, 0xdb, 0x1c, 0xf8, 0xf8, 0xf4, 0xfb, 0x11,
  0x3c, 0xdc, 0x1c, 0x1d, 0xda, 0xc1, 0x04, 0xf1, 0xf3, 0xe2, 0x01, 0xd4,
  0x0b, 0x24, 0xf9, 0xf1, 0xef, 0xf7, 0xff, 0xf7, 0xe7, 0x05, 0xfa, 0x0b,
  0x1f, 0x15, 0x0b, 0x34, 0x01, 0x03, 0xff, 0x26, 0x16, 0x36, 0x16, 0xec,
  0x00, 0x2c, 0xf3, 0x25, 0xf8, 0xee, 0xef, 0x28, 0x1c, 0xf1, 0x0d, 0xf4,
  0xf2, 0x2c, 0xf0, 0xe9, 0x25, 0x21, 0xff, 0x37, 0xfc, 0x20, 0x01, 0x04,
  0xd9, 0x21, 0x19, 0xf4, 0x16, 0x0a, 0xf4, 0x31, 0xf6, 0x0c, 0x15, 0xdf,
  0xe9, 0x28, 0xfc, 0xfd, 0x16, 0x31, 0x25, 0xfc, 0xf8, 0x25, 0x11, 0xf1,
  0x12, 0x00, 0x05, 0xfe, 0xf9, 0xf8, 0xfa, 0x0c, 0x19, 0x09, 0x22, 0xcc,
  0xf8, 0xeb, 0xf2, 0xf4, 0x15, 0xfa, 0xe4, 0x28, 0x1a, 0x0f, 0x2c, 0xf3,
  0xc9, 0xf7, 0xf5, 0x18, 0x0f, 0x0d, 0xf3, 0x38, 0xf9, 0xf4, 0xec, 0xe6,
  0xfa, 0xe4, 0xfa, 0x14, 0x28, 0x01, 0x24, 0x14, 0xf7, 0x1a, 0xfe, 0x04,
  0x14, 0xf7, 0xe0, 0x04, 0xef, 0x07, 0xf6, 0x28, 0xf4, 0xf0, 0xf1, 0xd3,
  0x0a, 0x1e, 0x33, 0xd6, 0x20, 0x08, 0x3a, 0x02, 0x12, 0x1c, 0xfc, 0x1b,
  0x09, 0xdb, 0xfc, 0xc8, 0xf3, 0xfb, 0xe7, 0xd5, 0xe5, 0xf9, 0x28, 0x00,
  0x2f, 0xde, 0xfd, 0x05, 0xe7, 0xd2, 0x18, 0x02, 0xf6, 0xff, 0x06, 0x02,
  0x08, 0xe9, 0xde, 0x31, 0xfc, 0x1d, 0xf4, 0xfd, 0x07, 0x1d, 0xf1, 0xd1,
  0x10, 0xcd, 0x17, 0xde, 0xf8, 0xfd, 0xf3, 0xe9, 0x23, 0xfb, 0x02, 0xe9,
  0xfb, 0x1b, 0x04, 0x36, 0x14, 0x1a, 0xf8, 0xdf, 0xd8, 0x1b, 0xe9, 0xe5,
  0x23, 0xf4, 0x24, 0x10, 0xf6, 0xe5, 0xf0, 0x31, 0xeb, 0xfe, 0xd1, 0x0e,
  0x0e, 0xd7, 0x45, 0x07, 0xf4, 0x02, 0x44, 0x3d, 0x0b, 0x0b, 0x09, 0xd1,
  0x00, 0x1c, 0x05, 0x06, 0x27, 0xd9, 0x16, 0x0f, 0xe4, 0xe0, 0x2d, 0xe5,
  0xef, 0x2e, 0x17, 0xe0, 0xef, 0xd8, 0xfe, 0x3f, 0x36, 0xe0, 0xeb, 0xe0,
  0xd0, 0x72, 0xed, 0x18, 0xf3, 0x1a, 0x9f, 0x42, 0xf1, 0x04, 0xec, 0xda,
  0xf6, 0x5f, 0x08, 0xfb, 0x39, 0xe9, 0xee, 0x2f, 0xeb, 0x2d, 0x04, 0xcb,
  0xeb, 0x27, 0x17, 0xf2, 0x1a, 0x28, 0xd3, 0x19, 0xef, 0x00, 0xed, 0x1e,
  0x13, 0x1d, 0xfd, 0x38, 0xde, 0x0d, 0xf7, 0x3c, 0xe8, 0xf7, 0x18, 0x34,
  0x0d, 0xfc, 0x0d, 0xff, 0xfd, 0xfd, 0x31, 0x50, 0xec, 0xf6, 0x21, 0x2b,
  0x05, 0x5e, 0x38, 0xed, 0xfe, 0xf0, 0xe0, 0x3a, 0xfd, 0x1b, 0x10, 0x2a,
  0xde, 0x54, 0xf7, 0xfc, 0xfe, 0x1d, 0xe9, 0x39, 0x1b, 0x19, 0x2e, 0x29,
  0xe9, 0xfc, 0x2e, 0x16, 0x13, 0x36, 0x07, 0xf3, 0xcd, 0xfd, 0x06, 0x07,
  0xd3, 0xd5, 0x1d, 0x29, 0xf4, 0x40, 0xfd, 0x12, 0x02, 0x1b, 0xf0, 0x12,
  0xef, 0xe2, 0x1b, 0xe6, 0xd1, 0xd9, 0x00, 0xd6, 0xe0, 0x02, 0xe5, 0x23,
  0x15, 0xfa, 0x43, 0xf8, 0x1b, 0x30, 0x0e, 0xe6, 0x2c, 0x0a, 0xeb, 0xff,
  0xbe, 0x00, 0x03, 0x1a, 0x10, 0x1d, 0x14, 0x0d, 0xfe, 0x28, 0xdf, 0xec,
  0xce, 0xc5, 0x0d, 0xe2, 0x22, 0xf8, 0xd5, 0x26, 0xee, 0x12, 0xeb, 0x2a,
  0xf7, 0xf3, 0xf0, 0x08, 0xc9, 0x28, 0x02, 0xf6, 0xfe, 0xdf, 0xeb, 0xef,
  0xee, 0x04, 0x09, 0x27, 0xe2, 0x02, 0xed, 0x0d, 0xfc, 0x17, 0xf8, 0xdf,
  0xeb, 0xec, 0xfc, 0x2c, 0xfa, 0x1e, 0x09, 0xe9, 0x32, 0x26, 0xdf, 0x2e,
  0xf5, 0xe4, 0xe7, 0x0d, 0x0d, 0xee, 0x0b, 0x08, 0x0d, 0x36, 0x06, 0xe1,
  0xab, 0x20, 0xd8, 0x04, 0x1c, 0x29, 0xf1, 0xf5, 0xc5, 0xff, 0xf3, 0x2c,
  0xf5, 0x26, 0xe4, 0xfa, 0xd3, 0x10, 0x27, 0xdd, 0xfd, 0x29, 0xe6, 0x32,
  0x16, 0xd6, 0x12, 0xcf, 0x2e, 0x14, 0x09, 0x04, 0xff, 0x15, 0xfe, 0x1b,
  0x2b, 0xe1, 0xc1, 0xf8, 0x2b, 0x18, 0x4d, 0x13, 0xeb, 0xfc, 0xea, 0x25,
  0x41, 0xd5, 0xfd, 0x1b, 0xd3, 0xe7, 0xfc, 0x14, 0xda, 0x1c, 0x0b, 0x01,
  0x23, 0xe9, 0x1b, 0x04, 0xe7, 0xf7, 0x12, 0xf5, 0xf3, 0xfa, 0xe4, 0xf0,
  0x08, 0xe0, 0xdd, 0x29, 0x0a, 0x37, 0xd5, 0xf3, 0x13, 0xdb, 0xf8, 0x28,
  0xfa, 0x05, 0xfe, 0xe1, 0x17, 0x18, 0xf4, 0xe7, 0x0c, 0x0a, 0x0e, 0xd7,
  0xd6, 0xf2, 0x09, 0xce, 0xd0, 0x0c, 0x14, 0xd2, 0x03, 0x23, 0xfa, 0x0e,
  0x03, 0xfa, 0xe4, 0x0d, 0x0c, 0xf9, 0xee, 0xce, 0x0c, 0x10, 0x09, 0x03,
  0xaf, 0x0b, 0xf2, 0xf9, 0x17, 0xfa, 0xd5, 0xdf, 0xdb, 0x0c, 0xda, 0x09,
  0xe4, 0xb5, 0x3b, 0x02, 0x01, 0x22, 0x12, 0xf3, 0x0d, 0xf6, 0xd3, 0x33,
  0xe7, 0xc6, 0x1b, 0x04, 0xf5, 0xf5, 0x03, 0xb1, 0x3b, 0xfe, 0xf0, 0x0a,
  0xd9, 0xcc, 0x2c, 0x00, 0xf8, 0xf2, 0xd6, 0xcc, 0x3b, 0x03, 0x1d, 0x0c,
  0xf9, 0xa6, 0x52, 0xd2, 0xff, 0xe9, 0x27, 0xbd, 0x27, 0x04, 0x02, 0xfc,
  0xe2, 0xf1, 0x2c, 0xfe, 0xe2, 0x04, 0xd1, 0xf7, 0xf9, 0x26, 0x08, 0xe4,
  0xbf, 0x14, 0xe3, 0x32, 0xc9, 0xf5, 0xc5, 0x0a, 0x25, 0xea, 0xc6, 0xd1,
  0xef, 0x1e, 0x3a, 0xfc, 0x28, 0xf9, 0xf4, 0xf5, 0x11, 0x04, 0x0b, 0x04,
  0xec, 0xf3, 0x2e, 0x28, 0xfd, 0x0b, 0xca, 0x25, 0x14, 0x01, 0xe7, 0xed,
  0xc1, 0x05, 0x28, 0x34, 0xdd, 0xed, 0xc2, 0x0c, 0x2b, 0x1d, 0xf1, 0x02,
  0x2f, 0xdc, 0xe5, 0xe3, 0x13, 0x11, 0xe0, 0x12, 0xce, 0x24, 0x0b, 0xef,
  0x18, 0x32, 0x39, 0xec, 0xea, 0x00, 0x09, 0xf9, 0x1d, 0xf8, 0xd7, 0xd1,
  0x36, 0x11, 0xe3, 0xfd, 0x20, 0xeb, 0xd7, 0x19, 0x02, 0xf0, 0x0e, 0xc9,
  0x18, 0x07, 0x18, 0x05, 0x14, 0x15, 0x0a, 0x29, 0x02, 0xe9, 0x23, 0x0b,
  0x03, 0x00, 0xd6, 0x06, 0x08, 0x14, 0x1c, 0xfb, 0x03, 0xfa, 0x27, 0x01,
  0x1c, 0x0a, 0x1f, 0xfe, 0xfc, 0xff, 0xff, 0xcf, 0xf2, 0xe6, 0x1e, 0x17,
  0x17, 0x06, 0x20, 0xc8, 0x16, 0x11, 0x06, 0xf7, 0xdf, 0x0d, 0xf9, 0x38,
  0xfe, 0x06, 0x1d, 0xe8, 0xde, 0x21, 0xfb, 0xeb, 0xf2, 0xf6, 0x07, 0xe7,
  0x26, 0xfd, 0x2f, 0x2b, 0xff, 0x23, 0x28, 0xde, 0xf6, 0x16, 0xdb, 0x11,
  0x32, 0x0d, 0x35, 0x2f, 0xea, 0xdc, 0x2b, 0x17, 0x03, 0x27, 0x02, 0x04,
  0xd7, 0xc5, 0x17, 0x07, 0x18, 0x01, 0xcd, 0x25, 0xec, 0xfe, 0x31, 0xc6,
  0x20, 0x1b, 0x0f, 0x00, 0x0c, 0xaa, 0x2c, 0x39, 0x24, 0x11, 0xf5, 0x1d,
  0x29, 0x1a, 0xe5, 0x21, 0x00, 0xcc, 0xf6, 0x31, 0xdd, 0x1a, 0xea, 0xd8,
  0x43, 0x61, 0x30, 0x21, 0x15, 0xc3, 0x26, 0x35, 0xff, 0x2d, 0xe2, 0xed,
  0x20, 0x3e, 0xe1, 0xd9, 0x09, 0xee, 0x2f, 0x5b, 0xd5, 0x01, 0xeb, 0xfb,
  0xe7, 0x25, 0x32, 0xee, 0x01, 0xc1, 0xcf, 0x45, 0xda, 0xe2, 0x1c, 0x0b,
  0xfe, 0x22, 0xe5, 0x05, 0x0f, 0x11, 0xd9, 0x67, 0x16, 0x2e, 0xf1, 0xe0,
  0xf7, 0x25, 0x10, 0xdd, 0x18, 0x3d, 0x06, 0x21, 0xd5, 0x15, 0x00, 0x12,
  0xc7, 0x19, 0x20, 0x01, 0xf9, 0xfb, 0xe2, 0x03, 0xfb, 0xe6, 0xfe, 0x28,
  0x0d, 0xf8, 0x34, 0xd7, 0xf2, 0x0d, 0xd0, 0x22, 0xc7, 0xec, 0xec, 0xef,
  0xdc, 0xd9, 0xea, 0x07, 0xff, 0x1e, 0x18, 0xe6, 0x22, 0xed, 0x2c, 0x19,
  0x27, 0xe5, 0x04, 0x14, 0x0c, 0xfe, 0x39, 0xfb, 0x03, 0x1c, 0xe7, 0x1b,
  0x09, 0x3a, 0x08, 0xff, 0xfb, 0x39, 0xe5, 0xf6, 0x39, 0xf2, 0xff, 0x13,
  0x05, 0x20, 0xf7, 0x23, 0x20, 0xe5, 0x00, 0x27, 0x12, 0x0d, 0x17, 0xf4,
  0x00, 0x38, 0xd0, 0xe3, 0x03, 0xf1, 0xfe, 0x0b, 0x13, 0x20, 0xed, 0x0e,
  0xf8, 0x07, 0x23, 0xd8, 0xfb, 0xf1, 0x0a, 0x19, 0x14, 0x2b, 0xfb, 0xf4,
  0xfc, 0x12, 0xfd, 0xff, 0x20, 0xc8, 0x34, 0xfc, 0x1b, 0xec, 0xec, 0x1d,
  0xf6, 0x11, 0xeb, 0x12, 0x0a, 0xd4, 0x16, 0xf2, 0x01, 0x2f, 0x03, 0xeb,
  0xc9, 0xef, 0x0b, 0xde, 0x01, 0xfa, 0x05, 0xe7, 0x1f, 0x14, 0x06, 0x19,
  0xd9, 0x2f, 0xee, 0x36, 0xe8, 0x00, 0xf5, 0xfd, 0x02, 0x35, 0xe1, 0xf3,
  0x39, 0x16, 0x39, 0xda, 0xdf, 0x3b, 0xe6, 0xc0, 0x23, 0xdb, 0x18, 0xd6,
  0x1e, 0x0c, 0x16, 0xe8, 0x14, 0xc4, 0x14, 0xde, 0x09, 0xe8, 0x00, 0x13,
  0xef, 0x07, 0x15, 0xef, 0x07, 0x10, 0x00, 0x24, 0x34, 0xfa, 0xfe, 0xe8,
  0xa3, 0xf5, 0xe9, 0x26, 0x1e, 0x05, 0xbb, 0x40, 0x1a, 0xf8, 0x38, 0xec,
  0xe4, 0x30, 0x14, 0x0e, 0x09, 0xc7, 0xe7, 0xe6, 0x0a, 0x19, 0xfd, 0xec,
  0xea, 0x1f, 0xf3, 0x20, 0x1a, 0x00, 0xe9, 0x0a, 0x27, 0x1d, 0xdb, 0xff,
  0xcc, 0x27, 0x32, 0x13, 0xfc, 0xe7, 0xc7, 0x0d, 0xe4, 0xd6, 0x1f, 0xe9,
  0xe6, 0x22, 0xf3, 0x01, 0xe8, 0x13, 0xf9, 0x26, 0xdb, 0xda, 0x03, 0xfa,
  0xe4, 0xff, 0x0b, 0x19, 0xff, 0x0a, 0x02, 0x04, 0x34, 0x0a, 0xd5, 0xe0,
  0xde, 0x0a, 0x13, 0xdd, 0x07, 0x2b, 0x18, 0x0c, 0x13, 0x15, 0xf6, 0x05,
  0xf9, 0x49, 0xe0, 0x09, 0xde, 0x06, 0xc1, 0x3d, 0x2d, 0xfa, 0x20, 0x3d,
  0xd6, 0xf3, 0x02, 0xee, 0xd5, 0x2b, 0xcf, 0x20, 0x0c, 0xe9, 0xe1, 0x15,
  0xa6, 0xd2, 0xdc, 0x08, 0xe0, 0x26, 0xd6, 0x0a, 0xd1, 0x14, 0x20, 0x14,
  0xe5, 0xa1, 0x11, 0xf9, 0x09, 0x41, 0xfd, 0xb6, 0x15, 0x18, 0xf4, 0x05,
  0x04, 0xcc, 0x18, 0x12, 0x31, 0x3a, 0xfc, 0xcc, 0xd6, 0xfa, 0x02, 0xe0,
  0xcd, 0x99, 0xd8, 0xde, 0xe2, 0xf2, 0xe5, 0xa4, 0xed, 0x2b, 0xfc, 0x07,
  0xf3, 0x9c, 0x13, 0xfd, 0x31, 0xcc, 0x01, 0xb7, 0x03, 0xf8, 0xfb, 0xeb,
  0xc8, 0xd7, 0xd0, 0xd3, 0x09, 0x11, 0x09, 0xcf, 0xc1, 0xde, 0xeb, 0xf9,
  0xe0, 0xa2, 0x29, 0xe3, 0x24, 0xd2, 0x00, 0xc8, 0xfa, 0xda, 0x25, 0xe3,
  0x0d, 0xc2, 0xe4, 0xd8, 0xf9, 0xda, 0xeb, 0xb3, 0xec, 0x00, 0x02, 0xf8,
  0x9f, 0xd4, 0xe8, 0xcc, 0x01, 0xa5, 0xb4, 0x07, 0xd8, 0xe0, 0xf9, 0xd7,
  0xc6, 0x1e, 0xf1, 0xdf, 0x06, 0xc3, 0xcc, 0x03, 0x1b, 0xf5, 0xfe, 0xe1,
  0xec, 0x6d, 0xa9, 0x07, 0xdb, 0xcb, 0xde, 0x71, 0xbc, 0xed, 0x03, 0xb6,
  0xfc, 0x6a, 0xb4, 0x1b, 0x05, 0xf1, 0xeb, 0x66, 0xd6, 0x2c, 0xfd, 0x18,
  0xd1, 0x63, 0xf1, 0x1d, 0x1b, 0xe8, 0xff, 0x48, 0xdf, 0x1c, 0xe3, 0x27,
  0xe4, 0x45, 0xbf, 0x10, 0x40, 0x04, 0xd9, 0x35, 0xd8, 0x0d, 0x0d, 0x0b,
  0xda, 0x4e, 0xd4, 0x12, 0xd8, 0xf9, 0x0e, 0x44, 0xd5, 0xfa, 0x0e, 0xf9,
  0xc7, 0x00, 0xce, 0x03, 0xe5, 0xef, 0xce, 0x13, 0x04, 0x0b, 0x03, 0xf2,
  0xd5, 0x2f, 0x09, 0xf4, 0x1e, 0xfe, 0xf4, 0x06, 0xd6, 0x07, 0xe6, 0x0c,
  0xe3, 0x24, 0x2b, 0xe7, 0x0c, 0x36, 0xd5, 0xf9, 0xc4, 0xf6, 0xf1, 0x23,
  0xdb, 0x1b, 0x11, 0x01, 0xde, 0x1a, 0xc0, 0xf0, 0xfd, 0x03, 0xff, 0xec,
  0xeb, 0x00, 0x01, 0xc6, 0xed, 0x22, 0xfb, 0xf2, 0x26, 0xe9, 0xee, 0xe6,
  0xd7, 0x04, 0x21, 0x1a, 0xfb, 0x16, 0x37, 0x1d, 0x03, 0x0e, 0x04, 0xdf,
  0x1d, 0x07, 0xeb, 0x07, 0xf7, 0xd6, 0x2e, 0x18, 0x03, 0x36, 0xf0, 0xeb,
  0x15, 0xf5, 0xe5, 0xed, 0x15, 0x28, 0xf9, 0x0b, 0x36, 0xff, 0xf1, 0xf9,
  0x1f, 0x10, 0x2e, 0x18, 0xf0, 0x15, 0x1f, 0x14, 0x0e, 0x1c, 0xee, 0xd6,
  0xff, 0xd2, 0x10, 0xf2, 0xf8, 0xe3, 0x0a, 0x1f, 0x0c, 0x1b, 0x16, 0xfc,
  0xd2, 0x31, 0xcd, 0xdf, 0xf6, 0x02, 0x01, 0x14, 0xf4, 0xf5, 0x0c, 0xde,
  0x13, 0x13, 0xe0, 0x09, 0xd6, 0xf6, 0x06, 0x08, 0xf8, 0xfe, 0x12, 0x0c,
  0x20, 0x1e, 0x22, 0xf5, 0x00, 0xfc, 0x16, 0x0e, 0xef, 0xea, 0x38, 0x19,
  0x37, 0xd7, 0xf4, 0xf4, 0x39, 0xf7, 0x20, 0xf2, 0x12, 0xf4, 0xfe, 0xe7,
  0x20, 0xf8, 0xfa, 0xf0, 0xe9, 0x12, 0xf7, 0x1e, 0x26, 0xef, 0x29, 0x11,
  0xdb, 0x10, 0xdd, 0xfe, 0x1e, 0xf1, 0x2a, 0xfc, 0xed, 0x08, 0x12, 0xf7,
  0x16, 0xe8, 0xfa, 0xf8, 0xd4, 0xea, 0x0c, 0x2a, 0x15, 0xfb, 0xf0, 0x04,
  0xf5, 0x1f, 0x01, 0xed, 0x13, 0xe4, 0x2c, 0xcd, 0xe7, 0xe5, 0xf7, 0x0d,
  0xf2, 0xf1, 0xcb, 0x30, 0xe8, 0xf5, 0xf5, 0xee, 0xdb, 0x0e, 0xda, 0x14,
  0x35, 0xe8, 0xd5, 0xea, 0x1b, 0x18, 0x18, 0xe6, 0xe3, 0x1c, 0xf2, 0x19,
  0x03, 0xef, 0x01, 0x2c, 0xf9, 0x19, 0xf3, 0xcf, 0x07, 0x00, 0xf4, 0xdf,
  0xf2, 0x34, 0xf8, 0x13, 0x0d, 0x23, 0xe3, 0x29, 0x21, 0x0c, 0x06, 0x28,
  0x23, 0x1d, 0x0a, 0x19, 0x1d, 0x1e, 0xd0, 0xe5, 0xec, 0x17, 0xe6, 0xe7,
  0xd1, 0x37, 0x01, 0x03, 0x07, 0x26, 0x0f, 0xff, 0xec, 0x0b, 0xfd, 0x0f,
  0xf8, 0xf6, 0x12, 0xe7, 0x22, 0xc3, 0x23, 0x08, 0xfc, 0x05, 0x0d, 0x0b,
  0x04, 0x35, 0x17, 0xd2, 0x26, 0xcd, 0xf9, 0xe3, 0xf8, 0x02, 0x1a, 0x03,
  0x0c, 0xfa, 0x1e, 0xed, 0xfe, 0xd1, 0xcc, 0xd2, 0x37, 0xf5, 0xe6, 0xf8,
  0xfc, 0xd8, 0x3a, 0x01, 0xc7, 0xec, 0xe0, 0x02, 0x3e, 0x14, 0xd3, 0xfb,
  0x04, 0xea, 0x0d, 0xff, 0xe7, 0x19, 0xfb, 0xdd, 0x1e, 0xdf, 0xf9, 0xff,
  0x25, 0xf4, 0x24, 0x26, 0xf7, 0x0d, 0x00, 0x09, 0xf9, 0xed, 0xe6, 0xf2,
  0x0b, 0x08, 0x1f, 0xf3, 0x29, 0x11, 0xc9, 0xf6, 0xe3, 0x06, 0xf9, 0xe9,
  0xf7, 0x0e, 0xf8, 0xf5, 0x12, 0x22, 0x1c, 0xec, 0xf3, 0xf2, 0x09, 0x29,
  0xe7, 0x1f, 0x11, 0xe0, 0x2f, 0xf2, 0x20, 0x06, 0x0b, 0x0f, 0x00, 0xe5,
  0x17, 0xfb, 0xcd, 0xfc, 0x1a, 0x03, 0xfa, 0xda, 0xe7, 0xe7, 0x1a, 0x1f,
  0xfb, 0x09, 0x1f, 0x21, 0x0c, 0x04, 0xfd, 0x16, 0xf8, 0x04, 0xe1, 0xef,
  0x1d, 0x0f, 0xf9, 0x2f, 0xd1, 0x12, 0x04, 0xde, 0xf4, 0x21, 0x0a, 0x14,
  0x26, 0x06, 0xe7, 0x38, 0xd1, 0xf7, 0xdf, 0xcd, 0xe4, 0x0c, 0x04, 0xec,
  0x09, 0xfd, 0xff, 0x13, 0xe8, 0xe5, 0x0b, 0x24, 0xc8, 0xcc, 0x16, 0xf3,
  0xf7, 0xf0, 0xf9, 0xf5, 0xef, 0x28, 0x07, 0xfb, 0xe9, 0x1a, 0x17, 0xf9,
  0x0e, 0x0f, 0xdc, 0xca, 0xe0, 0xf0, 0x24, 0x37, 0x18, 0xd3, 0x0f, 0x16,
  0xf8, 0xed, 0x09, 0x1d, 0xdc, 0x26, 0x03, 0x12, 0xda, 0xea, 0xcb, 0x11,
  0x14, 0x26, 0x08, 0xcf, 0x22, 0x37, 0x0d, 0x11, 0x1e, 0x00, 0xf3, 0x08,
  0xd3, 0x08, 0x19, 0x37, 0xe6, 0xfa, 0x0d, 0x07, 0xef, 0xe6, 0x25, 0x07,
  0xe4, 0xe3, 0xc5, 0x12, 0xec, 0xd2, 0xff, 0x22, 0xf6, 0x14, 0x0a, 0x0e,
  0xb0, 0x01, 0x02, 0x12, 0x26, 0xfa, 0x0a, 0x0d, 0xdc, 0x03, 0xd7, 0x03,
  0x32, 0xe9, 0x1c, 0x20, 0x1b, 0x0e, 0x46, 0xee, 0x03, 0xf3, 0x1a, 0xf4,
  0x11, 0x3c, 0x16, 0x22, 0xd5, 0xee, 0x36, 0x22, 0xdf, 0x11, 0x21, 0x0b,
  0x23, 0x45, 0xe3, 0x06, 0x03, 0x1a, 0x4c, 0x41, 0xea, 0xed, 0x39, 0xdd,
  0x20, 0x2f, 0x0c, 0xef, 0xef, 0xe5, 0x16, 0x4e, 0xdb, 0xeb, 0x07, 0x05,
  0x0e, 0x36, 0xcf, 0x09, 0xf1, 0xea, 0x0a, 0x03, 0xee, 0x2d, 0xd8, 0xdd,
  0x14, 0xeb, 0xe1, 0x0f, 0x0b, 0xca, 0x0a, 0xe9, 0x0f, 0x15, 0xf1, 0x0f,
  0xd5, 0x12, 0xd9, 0xdc, 0x01, 0x0d, 0xc5, 0xc9, 0x0a, 0xff, 0xe7, 0xd3,
  0xb0, 0x1f, 0xfc, 0xe7, 0xed, 0xe9, 0xd5, 0x19, 0xfa, 0xfb, 0xed, 0x05,
  0xf1, 0xf5, 0xf1, 0x29, 0xf2, 0x09, 0x2d, 0x02, 0x01, 0x1c, 0xf2, 0x1f,
  0xf9, 0x20, 0x09, 0xfb, 0xee, 0xe9, 0x1a, 0xe7, 0x04, 0x03, 0xe9, 0x05,
  0x19, 0xf7, 0xeb, 0x2a, 0xf1, 0xe3, 0x24, 0x18, 0x01, 0xf0, 0xee, 0xff,
  0x17, 0x06, 0x1d, 0xed, 0x0d, 0x05, 0x1f, 0x27, 0x09, 0xf9, 0xcd, 0x3a,
  0x18, 0x02, 0xe7, 0xf8, 0xf1, 0xf9, 0x07, 0xe8, 0xfb, 0x26, 0xde, 0xfc,
  0x2f, 0x12, 0x00, 0x3b, 0xd1, 0x20, 0xec, 0x30, 0x14, 0x02, 0x32, 0x20,
  0x20, 0xf9, 0x18, 0x2a, 0xf2, 0x1a, 0x30, 0xd2, 0x18, 0xf9, 0xe5, 0xef,
  0xf6, 0xf9, 0xe9, 0xf9, 0xf3, 0x10, 0xff, 0x02, 0x18, 0xfa, 0xfa, 0x17,
  0xee, 0x17, 0x19, 0x1f, 0x39, 0xf0, 0x04, 0x00, 0xfb, 0xf3, 0x07, 0xeb,
  0xef, 0xeb, 0xd5, 0x31, 0xf4, 0xf8, 0xfc, 0xe8, 0x22, 0xe5, 0xf0, 0xd0,
  0xa1, 0x0d, 0xb9, 0x12, 0xc9, 0xf0, 0xa9, 0xf4, 0xd1, 0x11, 0xba, 0x19,
  0xda, 0xec, 0x0c, 0xf2, 0xe5, 0x1e, 0x01, 0xea, 0xbf, 0x19, 0x18, 0x18,
  0x54, 0x02, 0xcb, 0x09, 0x29, 0x34, 0x52, 0x2c, 0x03, 0x08, 0xfa, 0x08,
  0x3e, 0x2f, 0xc7, 0xee, 0xd5, 0x1e, 0x39, 0x03, 0xc9, 0x02, 0xed, 0xe9,
  0x22, 0xe0, 0xfc, 0x0b, 0x22, 0xd4, 0x15, 0xe0, 0xf9, 0x07, 0x15, 0xcb,
  0xe7, 0x2d, 0xf6, 0x02, 0x00, 0xf0, 0x11, 0xf9, 0xf8, 0x1e, 0xf2, 0x0a,
  0x11, 0xc8, 0x09, 0x27, 0x28, 0xf5, 0x07, 0xf9, 0x09, 0x0a, 0xf1, 0xe8,
  0xdd, 0x04, 0xcb, 0xe0, 0x11, 0xf4, 0xec, 0xdc, 0xe7, 0xd7, 0x14, 0x0f,
  0xd5, 0xf1, 0xef, 0x2a, 0x24, 0x00, 0xe7, 0xe4, 0x0b, 0x13, 0x28, 0xf5,
  0xf8, 0xcd, 0xe8, 0x0c, 0xe5, 0xfe, 0xf0, 0xe9, 0x1f, 0x33, 0x0d, 0xc0,
  0xd1, 0x45, 0x03, 0x15, 0xd3, 0x20, 0xe5, 0x0a, 0xe6, 0xf9, 0x0a, 0x23,
  0xf9, 0x23, 0x04, 0x0b, 0x12, 0x15, 0xe4, 0x19, 0x3e, 0xe3, 0x36, 0x09,
  0x1a, 0xcc, 0x33, 0x04, 0x05, 0x28, 0xfa, 0xac, 0x50, 0xe6, 0xf4, 0x39,
  0xd3, 0xd4, 0x02, 0x0e, 0x33, 0x1d, 0xb6, 0x96, 0xfe, 0xf2, 0x18, 0xc8,
  0xfc, 0xe1, 0x1d, 0x06, 0xff, 0xd4, 0xb0, 0xe8, 0x3d, 0x05, 0xda, 0xf2,
  0xcd, 0xd0, 0x03, 0xd0, 0xf0, 0xff, 0xf6, 0xf8, 0x0c, 0x05, 0x1e, 0x06,
  0xfb, 0xd4, 0x44, 0x0c, 0xf5, 0xf7, 0xd5, 0xf4, 0x21, 0x1f, 0x10, 0xf1,
  0xb6, 0xf5, 0x07, 0x3b, 0xe4, 0x21, 0x14, 0xd4, 0x09, 0x38, 0x08, 0x09,
  0xcf, 0x16, 0x33, 0x03, 0xf2, 0xdf, 0xe6, 0x08, 0x15, 0x0d, 0xf0, 0xf4,
  0xef, 0x01, 0x38, 0xe8, 0xfb, 0x30, 0xdc, 0x05, 0x28, 0xdf, 0x29, 0x17,
  0xe1, 0xeb, 0x04, 0xda, 0x2c, 0xdf, 0xee, 0x1d, 0x02, 0x08, 0x22, 0xfa,
  0x36, 0x2f, 0xfc, 0xfb, 0x05, 0x20, 0x0a, 0x0a, 0xf2, 0x02, 0x2d, 0x07,
  0x24, 0xf6, 0xfd, 0x0c, 0x32, 0xf8, 0xdd, 0x1b, 0x1e, 0xfd, 0xeb, 0x0c,
  0x16, 0x14, 0x21, 0xdb, 0x1f, 0x19, 0x1a, 0x01, 0xc8, 0xd9, 0xf0, 0x0f,
  0xe2, 0xfb, 0x1c, 0xec, 0x2a, 0x03, 0x1b, 0x13, 0xf7, 0x0c, 0x0f, 0xf7,
  0xf4, 0xf6, 0x1f, 0xff, 0x2e, 0x1d, 0xd7, 0xe7, 0xc9, 0x08, 0x21, 0x0b,
  0x12, 0xf5, 0xc9, 0xd3, 0xfa, 0xd3, 0xfa, 0xeb, 0x05, 0x1e, 0xdb, 0xe8,
  0xde, 0x1b, 0x05, 0x02, 0x1a, 0x03, 0x05, 0xd3, 0x01, 0x02, 0x01, 0x05,
  0x0e, 0xd6, 0x1b, 0xef, 0x01, 0x09, 0x31, 0xff, 0x05, 0xf2, 0x29, 0x23,
  0xfa, 0xf4, 0x15, 0x0e, 0xf1, 0x2d, 0x03, 0x10, 0x2c, 0xe5, 0x07, 0x0a,
  0xe5, 0x1c, 0xdf, 0x06, 0xe7, 0x3c, 0x0f, 0x3a, 0xec, 0x42, 0x0c, 0x2b,
  0x01, 0x21, 0x0a, 0x17, 0xe1, 0x37, 0x18, 0xb0, 0x1a, 0xfd, 0xc5, 0x2b,
  0xd9, 0xc8, 0x1f, 0xe6, 0xf9, 0x37, 0x1c, 0xdc, 0xe8, 0x0a, 0x05, 0x0f,
  0xed, 0xd5, 0x17, 0x2a, 0xd1, 0x1e, 0xe1, 0xd9, 0xef, 0x07, 0xca, 0x42,
  0x0a, 0xc1, 0x17, 0xd2, 0x09, 0x38, 0x27, 0xeb, 0x21, 0xdf, 0xd8, 0xd9,
  0xee, 0xb8, 0xbe, 0x04, 0x19, 0x1b, 0xf5, 0xd1, 0xdb, 0x17, 0x15, 0xfe,
  0x03, 0xf2, 0x25, 0xed, 0x0f, 0x00, 0x08, 0xe5, 0x14, 0xe5, 0x30, 0xea,
  0x0e, 0xd5, 0xd9, 0x17, 0x03, 0xdf, 0xe6, 0xd8, 0x24, 0xe0, 0xc9, 0xd7,
  0xf3, 0xfd, 0x21, 0xdc, 0xf0, 0xff, 0xe5, 0x20, 0x12, 0x1c, 0x2b, 0xd5,
  0x17, 0xdd, 0x09, 0xe6, 0x02, 0xda, 0x18, 0xfc, 0x15, 0xf9, 0x0b, 0xe9,
  0xb7, 0x5c, 0xf7, 0xe8, 0x2b, 0xf4, 0xe1, 0xf1, 0x0c, 0xc8, 0xf2, 0x0b,
  0x9e, 0x24, 0x0a, 0xd0, 0x03, 0x17, 0xc5, 0xe9, 0x09, 0xff, 0xff, 0xeb,
  0xd8, 0xab, 0x08, 0xf1, 0x26, 0x0d, 0xc7, 0xe9, 0xfa, 0x15, 0x13, 0xf5,
  0xdc, 0xc0, 0x08, 0x32, 0x17, 0x23, 0xf0, 0xc7, 0xeb, 0x04, 0xe9, 0x16,
  0x07, 0xd4, 0x08, 0x0c, 0xf7, 0x12, 0xea, 0xce, 0x0f, 0x14, 0xe8, 0xdd,
  0x06, 0xd8, 0x03, 0x11, 0xcb, 0xe2, 0xdc, 0xf0, 0x0d, 0xed, 0xd9, 0x1c,
  0xf6, 0xfd, 0x19, 0x21, 0xea, 0x1b, 0x11, 0xe2, 0xed, 0xd8, 0xfb, 0x13,
  0x1d, 0xb7, 0xea, 0x14, 0xff, 0xd0, 0xe6, 0xde, 0x41, 0x32, 0x12, 0xd3,
  0xec, 0xd5, 0xee, 0xfa, 0xee, 0x22, 0xcc, 0xd3, 0x04, 0xfc, 0x06, 0xd2,
  0xf8, 0xf4, 0x0b, 0x03, 0xfe, 0xd1, 0xb8, 0xdb, 0x24, 0xf0, 0xd8, 0xf5,
  0xe2, 0x2f, 0x3e, 0x05, 0x01, 0x00, 0xc9, 0xfc, 0x24, 0x1d, 0x29, 0xfe,
  0xde, 0x1d, 0xf2, 0xd1, 0xe9, 0x23, 0xfd, 0x1a, 0x12, 0xe9, 0xf9, 0x39,
  0xd8, 0x2c, 0xf7, 0xeb, 0xea, 0xfc, 0xf0, 0xf1, 0xd4, 0xd7, 0x21, 0x32,
  0xdd, 0xbc, 0x0b, 0x04, 0x08, 0x2a, 0x01, 0xec, 0xf7, 0x0d, 0xf6, 0x2d,
  0x0a, 0xfb, 0x13, 0xde, 0x2e, 0x34, 0x17, 0xd3, 0xfb, 0xe8, 0x06, 0x32,
  0xdd, 0xf4, 0xe2, 0xec, 0xd6, 0xe8, 0x29, 0xd0, 0xc8, 0xfd, 0x1f, 0x1b,
  0xe1, 0xcb, 0xec, 0x1b, 0xe8, 0x15, 0x1c, 0xea, 0xe2, 0xff, 0x3a, 0x0d,
  0xfc, 0xd6, 0x15, 0x04, 0xd6, 0xc5, 0xfb, 0xe2, 0xce, 0x02, 0x03, 0x07,
  0x1c, 0xf2, 0xe7, 0x04, 0x27, 0xee, 0x24, 0xe0, 0x22, 0x28, 0x03, 0xea,
  0xc5, 0xfb, 0xcc, 0xf4, 0x12, 0xe2, 0xef, 0x11, 0xd9, 0xec, 0x27, 0xe9,
  0x0c, 0xd6, 0x0a, 0xf0, 0xe6, 0xfc, 0x20, 0xd1, 0x14, 0xe7, 0xe4, 0x20,
  0x18, 0x35, 0xf6, 0x08, 0x01, 0xf7, 0xf6, 0xea, 0x26, 0xfb, 0x1b, 0x0d,
  0xec, 0xf4, 0x14, 0x35, 0xe3, 0x15, 0x0f, 0xf2, 0x14, 0x00, 0xdb, 0x23,
  0xd7, 0x19, 0x30, 0x01, 0x07, 0xcf, 0xd9, 0x1b, 0x19, 0xec, 0x0c, 0x09,
  0xfd, 0xc9, 0xf1, 0xfe, 0xcf, 0x1e, 0xc6, 0x29, 0x0c, 0x1e, 0x15, 0x1b,
  0xdb, 0x31, 0xd9, 0x03, 0xf7, 0xe2, 0xc6, 0x19, 0x01, 0x23, 0xea, 0xe5,
  0x03, 0x1c, 0x29, 0x02, 0xe7, 0xfe, 0xe2, 0x24, 0xf8, 0xfb, 0xf8, 0xf0,
  0xcd, 0x2a, 0x21, 0xdc, 0xd3, 0xf0, 0xfb, 0x3c, 0x35, 0x25, 0xe5, 0x20,
  0xc8, 0x09, 0x02, 0xf1, 0xe9, 0x09, 0xd1, 0x3b, 0x14, 0x21, 0x16, 0x04,
  0x00, 0x02, 0x04, 0x36, 0xd0, 0x04, 0xf2, 0x0e, 0xf8, 0x0a, 0xdc, 0xf4,
  0xe2, 0x13, 0xf3, 0xf5, 0xfd, 0xf2, 0xdb, 0x05, 0xd9, 0xf6, 0x20, 0x16,
  0xd7, 0xee, 0x11, 0x00, 0x07, 0x3e, 0xb2, 0xf6, 0xea, 0x07, 0xf5, 0x12,
  0xbe, 0xf2, 0xe8, 0x01, 0xe0, 0x1f, 0xd1, 0xf1, 0xcc, 0xe8, 0xff, 0x18,
  0xb4, 0xbe, 0x09, 0x09, 0xe4, 0x10, 0x14, 0xcd, 0x07, 0x0a, 0xf1, 0xf2,
  0xf8, 0xf2, 0xdf, 0xcb, 0x1b, 0x08, 0xfd, 0xdf, 0xdc, 0x2e, 0x06, 0x2d,
  0xfd, 0xdc, 0xea, 0xff, 0x18, 0xe3, 0x12, 0xb3, 0x2a, 0xdf, 0xf7, 0x27,
  0xd5, 0xd1, 0x02, 0x01, 0x0c, 0xe6, 0x06, 0xc9, 0xe7, 0x03, 0xda, 0x25,
  0xe1, 0xc2, 0xff, 0xd4, 0xea, 0xe5, 0xba, 0xcd, 0x0c, 0xfe, 0xe0, 0x03,
  0xe7, 0xe8, 0xfb, 0x25, 0xfd, 0xdb, 0xea, 0xee, 0x00, 0xee, 0xf7, 0xe9,
  0xbf, 0xfb, 0x32, 0xeb, 0xe0, 0x08, 0xfd, 0xd3, 0xf6, 0x21, 0x25, 0x00,
  0x34, 0xe3, 0xf8, 0x03, 0xeb, 0x07, 0xf1, 0xf2, 0x0a, 0x09, 0x13, 0x0b,
  0x2f, 0x25, 0x09, 0x11, 0x17, 0x29, 0xf0, 0xeb, 0x44, 0xe1, 0x12, 0x36,
  0x04, 0xdd, 0x0c, 0xf3, 0xef, 0xed, 0x06, 0xcf, 0xe8, 0x19, 0xff, 0xeb,
  0x10, 0xe6, 0x19, 0xd9, 0x3c, 0xdf, 0xf5, 0xaf, 0x31, 0x37, 0xf2, 0xea,
  0xd3, 0xd4, 0x48, 0xfa, 0xfe, 0x2f, 0xe0, 0xff, 0x3c, 0xd5, 0x0d, 0x02,
  0x0d, 0xba, 0x1d, 0x0a, 0x00, 0xeb, 0xf0, 0x0e, 0x0b, 0xfb, 0x13, 0x20,
  0x1d, 0x1d, 0x23, 0xf6, 0x16, 0x0f, 0xd1, 0x29, 0xf6, 0x14, 0x01, 0x0c,
  0xef, 0xf0, 0x22, 0xe6, 0x05, 0x1f, 0xd1, 0x15, 0xee, 0xe0, 0xe9, 0x07,
  0xdd, 0x1e, 0x2c, 0x0b, 0x26, 0xd6, 0xd1, 0xeb, 0xf2, 0x1d, 0xfe, 0x0a,
  0xe4, 0x24, 0x21, 0x0c, 0xd9, 0x13, 0x17, 0xeb, 0x43, 0x01, 0x03, 0x06,
  0xe2, 0xfd, 0xf5, 0xda, 0x0d, 0xf5, 0xf3, 0x04, 0x0f, 0x10, 0xeb, 0x1e,
  0x00, 0xfe, 0xd1, 0x3f, 0xf5, 0x31, 0xe7, 0xfd, 0xe6, 0xed, 0xca, 0x1f,
  0x0f, 0xf5, 0xf5, 0x29, 0xfa, 0x3f, 0x03, 0xc7, 0xe8, 0x2c, 0xf2, 0x02,
  0x14, 0xd7, 0xe1, 0x00, 0x10, 0xee, 0x09, 0x0b, 0xb5, 0x00, 0x17, 0x0a,
  0x0f, 0x13, 0x00, 0x07, 0xf0, 0xe3, 0x2f, 0xf7, 0xd7, 0xc8, 0x38, 0xf6,
  0x2f, 0xdd, 0xda, 0x02, 0xd2, 0xea, 0xd8, 0xf4, 0xf8, 0x16, 0xf4, 0x04,
  0x14, 0xd4, 0xfe, 0x23, 0x17, 0x0c, 0xcc, 0xac, 0x03, 0x18, 0xf3, 0xea,
  0xd4, 0xad, 0x0f, 0x10, 0x00, 0xfe, 0x1a, 0xa4, 0xe9, 0xdc, 0xe6, 0xe9,
  0x12, 0xd4, 0xd1, 0xfa, 0xcf, 0xfc, 0xf1, 0xd3, 0xfe, 0x17, 0x00, 0xd0,
  0x25, 0x06, 0xfb, 0xf1, 0xea, 0xde, 0x25, 0x00, 0xe9, 0xe1, 0x1e, 0x0c,
  0x06, 0x14, 0xc7, 0x13, 0x19, 0xca, 0x16, 0x3f, 0x1a, 0x23, 0xef, 0xf3,
  0xec, 0x4a, 0xfc, 0x17, 0x04, 0xf5, 0xd4, 0x18, 0x27, 0x0d, 0x02, 0xe0,
  0xd4, 0x34, 0xdf, 0xdf, 0xd8, 0xc4, 0xba, 0x1e, 0xd4, 0x24, 0xe3, 0x0b,
  0xe4, 0x3d, 0x1f, 0x1e, 0xe4, 0x0a, 0xae, 0x3e, 0xfa, 0x19, 0xf2, 0xe5,
  0x03, 0x03, 0xf0, 0x11, 0xef, 0x13, 0x06, 0xfe, 0xfa, 0xef, 0x12, 0x39,
  0xce, 0xff, 0xf8, 0xf4, 0x03, 0x26, 0x12, 0x49, 0x07, 0x19, 0x01, 0x14,
  0xdd, 0x1f, 0xf7, 0xf7, 0x20, 0x03, 0xdb, 0x09, 0xde, 0xde, 0xf5, 0xed,
  0xf5, 0x17, 0x0c, 0x28, 0xfa, 0x17, 0x0e, 0xf6, 0x1b, 0x0e, 0xfc, 0xf3,
  0xcb, 0x07, 0xf3, 0xf8, 0xfc, 0xf6, 0x32, 0x1f, 0x32, 0x1a, 0x07, 0x0d,
  0x1b, 0x3d, 0x25, 0xe0, 0xcd, 0x18, 0x19, 0xf7, 0x23, 0x1f, 0x30, 0x09,
  0xd4, 0xe7, 0xe7, 0x07, 0xe4, 0x3b, 0xf4, 0x05, 0xdd, 0xf9, 0x13, 0x09,
  0x04, 0xea, 0x09, 0xf0, 0xf7, 0x05, 0xd8, 0xec, 0xf8, 0xf3, 0xee, 0x2c,
  0xf2, 0x05, 0x12, 0x39, 0x36, 0xe2, 0x09, 0xdd, 0xf5, 0xfb, 0xf7, 0x08,
  0x03, 0xcf, 0xeb, 0xf1, 0x06, 0xd5, 0x26, 0xc9, 0xf5, 0xea, 0x14, 0xca,
  0x09, 0xc0, 0xf8, 0x23, 0xf6, 0xe6, 0x2f, 0xb0, 0xfa, 0x05, 0x14, 0x1c,
  0x20, 0xf1, 0x05, 0xd9, 0xdf, 0x0e, 0x01, 0xc8, 0xe0, 0x19, 0xdd, 0xe1,
  0x0d, 0x02, 0xde, 0xee, 0xdd, 0xfd, 0x0e, 0x0e, 0xf1, 0xd3, 0xf1, 0xd4,
  0x0b, 0x00, 0xe1, 0xe1, 0x09, 0xeb, 0xf4, 0x12, 0x03, 0xdf, 0x14, 0x10,
  0xfe, 0xe2, 0xee, 0xf9, 0x0c, 0xff, 0xe9, 0xec, 0x0c, 0x07, 0xe8, 0xd1,
  0x16, 0xfe, 0xe1, 0x10, 0x31, 0xc4, 0xff, 0xf8, 0xff, 0xf3, 0xd0, 0xd7,
  0x09, 0xd5, 0x2a, 0xf7, 0xf6, 0x1e, 0x0b, 0x06, 0xe5, 0x0a, 0x02, 0xe2,
  0xfa, 0xef, 0x1c, 0x22, 0xf4, 0x22, 0x2a, 0xea, 0xf8, 0xfc, 0xf5, 0xf7,
  0x0c, 0x17, 0x0d, 0xf7, 0x06, 0xf2, 0xdc, 0x21, 0xff, 0xfe, 0x1f, 0x3a,
  0x11, 0x09, 0xe3, 0xd5, 0xef, 0xee, 0x2c, 0x2a, 0x23, 0xe4, 0x12, 0xea,
  0x31, 0x17, 0x06, 0x0e, 0xed, 0x2a, 0x09, 0xf9, 0x03, 0x04, 0x02, 0xef,
  0xf6, 0xf7, 0x23, 0x0d, 0x0e, 0xf1, 0xff, 0x21, 0x0f, 0x2b, 0xff, 0xee,
  0x06, 0x0e, 0xe3, 0x13, 0x08, 0x15, 0x00, 0xce, 0xe5, 0x1c, 0x16, 0x1b,
  0x11, 0xe4, 0xcf, 0x04, 0x18, 0xec, 0x10, 0x0e, 0xd5, 0xf5, 0xf8, 0x13,
  0xf5, 0x08, 0x16, 0x1e, 0x1f, 0x1c, 0x06, 0xea, 0x12, 0x03, 0x0b, 0xe3,
  0x10, 0xf8, 0x26, 0x03, 0x12, 0xfc, 0x06, 0xd5, 0x13, 0x03, 0xe9, 0xd6,
  0x18, 0x27, 0xe4, 0xd7, 0x13, 0xd9, 0xe5, 0x09, 0xfd, 0x2a, 0xdc, 0xec,
  0xf0, 0xfe, 0x1b, 0x09, 0x2b, 0xd0, 0x1c, 0x0e, 0x30, 0x38, 0xf1, 0xe4,
  0x36, 0xe9, 0x16, 0xed, 0xd5, 0x34, 0xe5, 0x18, 0x1a, 0x2a, 0xf6, 0x1b,
  0x31, 0x05, 0x00, 0x08, 0x2d, 0xff, 0xe9, 0xf1, 0xd7, 0x12, 0xf9, 0x03,
  0x20, 0x21, 0xe6, 0x29, 0x35, 0xec, 0xf7, 0xe7, 0xe6, 0xf0, 0x16, 0x02,
  0x0d, 0x0b, 0x0d, 0x33, 0xf9, 0x18, 0x12, 0xf1, 0xf6, 0x0b, 0xe2, 0xe9,
  0xf8, 0xcf, 0xdc, 0x08, 0xfd, 0x04, 0x28, 0x00, 0xfa, 0xe4, 0x13, 0xfe,
  0xf7, 0x10, 0x14, 0x32, 0xdb, 0xfe, 0xd8, 0x2b, 0xee, 0x17, 0xf9, 0x1b,
  0xe2, 0x3d, 0xf8, 0xf7, 0xf5, 0x1a, 0xf7, 0x10, 0xee, 0x23, 0xe9, 0x07,
  0xdf, 0xf7, 0x18, 0xd6, 0x0a, 0x23, 0xf2, 0xf4, 0x14, 0x1f, 0x0c, 0x12,
  0x84, 0xfd, 0xff, 0xff, 0x88, 0xfd, 0xff, 0xff, 0xbe, 0xfd, 0xff, 0xff,
  0x04, 0x00, 0x00, 0x00, 0xc8, 0x00, 0x00, 0x00, 0x46, 0x02, 0x00, 0x00,
  0x19, 0xfa, 0xff, 0xff, 0xd5, 0x2c, 0x00, 0x00, 0x06, 0x1e, 0x00, 0x00,
  0x22, 0xf3, 0xff, 0xff, 0xf4, 0x24, 0x00, 0x00, 0xa8, 0x0c, 0x00, 0x00,
  0x47, 0x1d, 0x00, 0x00, 0x51, 0xf8, 0xff, 0xff, 0x7d, 0x1a, 0x00, 0x00,
  0x85, 0x42, 0x00, 0x00, 0xa4, 0xf7, 0xff, 0xff, 0x65, 0x2d, 0x00, 0x00,
  0x73, 0x28, 0x00, 0x00, 0xcf, 0x1c, 0x00, 0x00, 0xbe, 0x28, 0x00, 0x00,
  0x68, 0x0c, 0x00, 0x00, 0x08, 0x1e, 0x00, 0x00, 0x10, 0x13, 0x00, 0x00,
  0xb7, 0x19, 0x00, 0x00, 0xd1, 0x30, 0x00, 0x00, 0x84, 0x2b, 0x00, 0x00,
  0x2e, 0x44, 0x00, 0x00, 0x62, 0x30, 0x00, 0x00, 0xcd, 0xf5, 0xff, 0xff,
  0xbf, 0x47, 0x00, 0x00, 0xea, 0x17, 0x00, 0x00, 0xd8, 0x09, 0x00, 0x00,
  0xa4, 0x31, 0x00, 0x00, 0xa0, 0x60, 0x00, 0x00, 0xab, 0x22, 0x00, 0x00,
  0x2e, 0xfb, 0xff, 0xff, 0x2c, 0xfb, 0xff, 0xff, 0x4c, 0xf9, 0xff, 0xff,
  0x38, 0x4b, 0x00, 0x00, 0x00, 0x00, 0x00, 0x00, 0x56, 0x25, 0x00, 0x00,
  0xca, 0x21, 0x00, 0x00, 0x7b, 0xfd, 0xff, 0xff, 0x05, 0x2a, 0x00, 0x00,
  0x67, 0x3f, 0x00, 0x00, 0xca, 0x10, 0x00, 0x00, 0xa8, 0x07, 0x00, 0x00,
  0x7d, 0x59, 0x00, 0x00, 0xf9, 0x00, 0x00, 0x00, 0xfa, 0x39, 0x00, 0x00,
  0x2c, 0x30, 0x00, 0x00, 0x2c, 0x33, 0x00, 0x00, 0x4a, 0xf8, 0xff, 0xff,
  0xdc, 0x13, 0x00, 0x00, 0x92, 0xfe, 0xff, 0xff, 0x04, 0x00, 0x00, 0x00,
  0x3c, 0x00, 0x00, 0x00, 0xf5, 0x0b, 0x00, 0x00, 0x00, 0x00, 0x00, 0x00,
  0x14, 0x02, 0x00, 0x00, 0xbd, 0x00, 0x00, 0x00, 0x40, 0xff, 0xff, 0xff,
  0xe4, 0x05, 0x00, 0x00, 0x3d, 0x0f, 0x00, 0x00, 0x3b, 0x07, 0x00, 0x00,
  0x51, 0xfe, 0xff, 0xff, 0xf6, 0x0e, 0x00, 0x00, 0xc1, 0x08, 0x00, 0x00,
  0x9e, 0xfa, 0xff, 0xff, 0x95, 0x09, 0x00, 0x00, 0xe3, 0x08, 0x00, 0x00,
  0xea, 0x15, 0x00, 0x00, 0xda, 0xfe, 0xff, 0xff, 0x04, 0x00, 0x00, 0x00,
  0x5a, 0x00, 0x00, 0x00, 0x08, 0x2a, 0x36, 0xff, 0xf0, 0xf1, 0xfc, 0x26,
  0xfe, 0x17, 0x9c, 0xbd, 0x30, 0x0a, 0xfa, 0x21, 0x05, 0x3c, 0x22, 0x09,
  0x57, 0xd7, 0x01, 0x2f, 0x81, 0xda, 0x27, 0xbd, 0x49, 0xec, 0xd5, 0xeb,
  0xc9, 0xf2, 0x19, 0x07, 0xf9, 0x2f, 0xb7, 0x4e, 0xaf, 0xdd, 0x50, 0x1b,
  0xa3, 0x97, 0x11, 0x0f, 0xc8, 0x1c, 0x0e, 0x45, 0x0c, 0xdf, 0xd7, 0x20,
  0x14, 0xf9, 0x55, 0xec, 0x0c, 0x01, 0xcd, 0xfa, 0xef, 0x34, 0x40, 0xed,
  0xe5, 0xe1, 0x10, 0xbd, 0xe2, 0xdd, 0x0f, 0x0b, 0x01, 0xe8, 0xe8, 0x13,
  0xd2, 0xba, 0xcc, 0x2a, 0xf4, 0x2b, 0x2f, 0x0c, 0xc3, 0xfd, 0x00, 0x00,
  0x42, 0xff, 0xff, 0xff, 0x04, 0x00, 0x00, 0x00, 0x18, 0x00, 0x00, 0x00,
  0xef, 0xfd, 0xff, 0xff, 0x12, 0xfc, 0xff, 0xff, 0x3d, 0xff, 0xff, 0xff,
  0x30, 0xfd, 0xff, 0xff, 0x56, 0x01, 0x00, 0x00, 0xf0, 0xfc, 0xff, 0xff,
  0x34, 0xff, 0xff, 0xff, 0x0f, 0x00, 0x00, 0x00, 0x54, 0x4f, 0x43, 0x4f,
  0x20, 0x43, 0x6f, 0x6e, 0x76, 0x65, 0x72, 0x74, 0x65, 0x64, 0x2e, 0x00,
  0x01, 0x00, 0x00, 0x00, 0x04, 0x00, 0x00, 0x00, 0x00, 0xf9, 0xff, 0xff,
  0x94, 0x01, 0x00, 0x00, 0x88, 0x01, 0x00, 0x00, 0x7c, 0x01, 0x00, 0x00,
  0x04, 0x00, 0x00, 0x00, 0x06, 0x00, 0x00, 0x00, 0x50, 0x01, 0x00, 0x00,
  0x04, 0x01, 0x00, 0x00, 0xbc, 0x00, 0x00, 0x00, 0x74, 0x00, 0x00, 0x00,
  0x38, 0x00, 0x00, 0x00, 0x04, 0x00, 0x00, 0x00, 0xd2, 0xfe, 0xff, 0xff,
  0x03, 0x00, 0x00, 0x00, 0x10, 0x00, 0x00, 0x00, 0x04, 0x00, 0x00, 0x00,
  0x01, 0x00, 0x00, 0x00, 0x0c, 0x00, 0x00, 0x00, 0x01, 0x00, 0x00, 0x00,
  0x00, 0x00, 0x00, 0x00, 0x00, 0x00, 0x0e, 0x00, 0x1a, 0x00, 0x08, 0x00,
  0x0c, 0x00, 0x10, 0x00, 0x07, 0x00, 0x14, 0x00, 0x0e, 0x00, 0x00, 0x00,
  0x00, 0x00, 0x00, 0x09, 0x01, 0x00, 0x00, 0x00, 0x24, 0x00, 0x00, 0x00,
  0x18, 0x00, 0x00, 0x00, 0x0c, 0x00, 0x00, 0x00, 0x00, 0x00, 0x06, 0x00,
  0x08, 0x00, 0x04, 0x00, 0x06, 0x00, 0x00, 0x00, 0x00, 0x00, 0x80, 0x3f,
  0x01, 0x00, 0x00, 0x00, 0x00, 0x00, 0x00, 0x00, 0x01, 0x00, 0x00, 0x00,
  0x08, 0x00, 0x00, 0x00, 0xca, 0xff, 0xff, 0xff, 0x00, 0x00, 0x00, 0x08,
  0x1c, 0x00, 0x00, 0x00, 0x10, 0x00, 0x00, 0x00, 0x08, 0x00, 0x00, 0x00,
  0x04, 0x00, 0x04, 0x00, 0x04, 0x00, 0x00, 0x00, 0x01, 0x00, 0x00, 0x00,
  0x08, 0x00, 0x00, 0x00, 0x03, 0x00, 0x00, 0x00, 0x07, 0x00, 0x00, 0x00,
  0x09, 0x00, 0x00, 0x00, 0x0a, 0x00, 0x00, 0x00, 0x00, 0x00, 0x0e, 0x00,
  0x14, 0x00, 0x00, 0x00, 0x08, 0x00, 0x0c, 0x00, 0x07, 0x00, 0x10, 0x00,
  0x0e, 0x00, 0x00, 0x00, 0x00, 0x00, 0x00, 0x08, 0x1c, 0x00, 0x00, 0x00,
  0x10, 0x00, 0x00, 0x00, 0x04, 0x00, 0x00, 0x00, 0xba, 0xff, 0xff, 0xff,
  0x00, 0x00, 0x00, 0x01, 0x01, 0x00, 0x00, 0x00, 0x07, 0x00, 0x00, 0x00,
  0x03, 0x00, 0x00, 0x00, 0x04, 0x00, 0x00, 0x00, 0x05, 0x00, 0x00, 0x00,
  0x06, 0x00, 0x00, 0x00, 0x00, 0x00, 0x0e, 0x00, 0x16, 0x00, 0x00, 0x00,
  0x08, 0x00, 0x0c, 0x00, 0x07, 0x00, 0x10, 0x00, 0x0e, 0x00, 0x00, 0x00,
  0x00, 0x00, 0x00, 0x08, 0x24, 0x00, 0x00, 0x00, 0x18, 0x00, 0x00, 0x00,
  0x0c, 0x00, 0x00, 0x00, 0x00, 0x00, 0x06, 0x00, 0x08, 0x00, 0x07, 0x00,
  0x06, 0x00, 0x00, 0x00, 0x00, 0x00, 0x00, 0x01, 0x01, 0x00, 0x00, 0x00,
  0x04, 0x00, 0x00, 0x00, 0x03, 0x00, 0x00, 0x00, 0x01, 0x00, 0x00, 0x00,
  0x02, 0x00, 0x00, 0x00, 0x03, 0x00, 0x00, 0x00, 0x00, 0x00, 0x0a, 0x00,
  0x10, 0x00, 0x04, 0x00, 0x08, 0x00, 0x0c, 0x00, 0x0a, 0x00, 0x00, 0x00,
  0x02, 0x00, 0x00, 0x00, 0x10, 0x00, 0x00, 0x00, 0x04, 0x00, 0x00, 0x00,
  0x01, 0x00, 0x00, 0x00, 0x01, 0x00, 0x00, 0x00, 0x01, 0x00, 0x00, 0x00,
  0x0b, 0x00, 0x00, 0x00, 0x01, 0x00, 0x00, 0x00, 0x0c, 0x00, 0x00, 0x00,
  0x01, 0x00, 0x00, 0x00, 0x0b, 0x00, 0x00, 0x00, 0x0d, 0x00, 0x00, 0x00,
  0xe4, 0x05, 0x00, 0x00, 0x48, 0x05, 0x00, 0x00, 0xa8, 0x04, 0x00, 0x00,
  0x34, 0x04, 0x00, 0x00, 0xb0, 0x03, 0x00, 0x00, 0x0c, 0x03, 0x00, 0x00,
  0x98, 0x02, 0x00, 0x00, 0x14, 0x02, 0x00, 0x00, 0x88, 0x01, 0x00, 0x00,
  0xe4, 0x00, 0x00, 0x00, 0x70, 0x00, 0x00, 0x00, 0x3c, 0x00, 0x00, 0x00,
  0x04, 0x00, 0x00, 0x00, 0xd8, 0xff, 0xff, 0xff, 0x18, 0x00, 0x00, 0x00,
  0x04, 0x00, 0x00, 0x00, 0x08, 0x00, 0x00, 0x00, 0x49, 0x64, 0x65, 0x6e,
  0x74, 0x69, 0x74, 0x79, 0x00, 0x00, 0x00, 0x00, 0x02, 0x00, 0x00, 0x00,
  0x01, 0x00, 0x00, 0x00, 0x06, 0x00, 0x00, 0x00, 0x0c, 0x00, 0x0c, 0x00,
  0x04, 0x00, 0x00, 0x00, 0x00, 0x00, 0x08, 0x00, 0x0c, 0x00, 0x00, 0x00,
  0x20, 0x00, 0x00, 0x00, 0x04, 0x00, 0x00, 0x00, 0x13, 0x00, 0x00, 0x00,
  0x64, 0x65, 0x6e, 0x73, 0x65, 0x5f, 0x44, 0x65, 0x6e, 0x73, 0x65, 0x31,
  0x39, 0x5f, 0x69, 0x6e, 0x70, 0x75, 0x74, 0x00, 0x02, 0x00, 0x00, 0x00,
  0x01, 0x00, 0x00, 0x00, 0x78, 0x00, 0x00, 0x00, 0xc2, 0xfa, 0xff, 0xff,
  0x00, 0x00, 0x00, 0x02, 0x60, 0x00, 0x00, 0x00, 0x01, 0x00, 0x00, 0x00,
  0x2c, 0x00, 0x00, 0x00, 0x04, 0x00, 0x00, 0x00, 0xb4, 0xfa, 0xff, 0xff,
  0x18, 0x00, 0x00, 0x00, 0x04, 0x00, 0x00, 0x00, 0x01, 0x00, 0x00, 0x00,
  0x00, 0x00, 0x00, 0x00, 0x00, 0x00, 0x00, 0x00, 0x00, 0x00, 0x00, 0x00,
  0x01, 0x00, 0x00, 0x00, 0x8e, 0x29, 0xa1, 0x39, 0x26, 0x00, 0x00, 0x00,
  0x73, 0x65, 0x71, 0x75, 0x65, 0x6e, 0x74, 0x69, 0x61, 0x6c, 0x5f, 0x37,
  0x2f, 0x64, 0x65, 0x6e, 0x73, 0x65, 0x5f, 0x44, 0x65, 0x6e, 0x73, 0x65,
  0x32, 0x31, 0x2f, 0x4d, 0x61, 0x74, 0x4d, 0x75, 0x6c, 0x5f, 0x62, 0x69,
  0x61, 0x73, 0x00, 0x00, 0x01, 0x00, 0x00, 0x00, 0x06, 0x00, 0x00, 0x00,
  0x32, 0xfb, 0xff, 0xff, 0x00, 0x00, 0x00, 0x09, 0x8c, 0x00, 0x00, 0x00,
  0x02, 0x00, 0x00, 0x00, 0x44, 0x00, 0x00, 0x00, 0x04, 0x00, 0x00, 0x00,
  0xbc, 0xfb, 0xff, 0xff, 0x30, 0x00, 0x00, 0x00, 0x24, 0x00, 0x00, 0x00,
  0x18, 0x00, 0x00, 0x00, 0x04, 0x00, 0x00, 0x00, 0x01, 0x00, 0x00, 0x00,
  0x00, 0x00, 0x00, 0x00, 0x00, 0x00, 0x00, 0x00, 0x00, 0x00, 0x00, 0x00,
  0x01, 0x00, 0x00, 0x00, 0x0c, 0xd8, 0x2b, 0x3c, 0x01, 0x00, 0x00, 0x00,
  0x27, 0x21, 0x69, 0x3f, 0x01, 0x00, 0x00, 0x00, 0x5c, 0x80, 0xaa, 0xbf,
  0x3a, 0x00, 0x00, 0x00, 0x73, 0x65, 0x71, 0x75, 0x65, 0x6e, 0x74, 0x69,
  0x61, 0x6c, 0x5f, 0x37, 0x2f, 0x64, 0x65, 0x6e, 0x73, 0x65, 0x5f, 0x44,
  0x65, 0x6e, 0x73, 0x65, 0x32, 0x31, 0x2f, 0x4d, 0x61, 0x74, 0x4d, 0x75,
  0x6c, 0x2f, 0x52, 0x65, 0x61, 0x64, 0x56, 0x61, 0x72, 0x69, 0x61, 0x62,
  0x6c, 0x65, 0x4f, 0x70, 0x2f, 0x74, 0x72, 0x61, 0x6e, 0x73, 0x70, 0x6f,
  0x73, 0x65, 0x00, 0x00, 0x02, 0x00, 0x00, 0x00, 0x06, 0x00, 0x00, 0x00,
  0x0f, 0x00, 0x00, 0x00, 0xd2, 0xfb, 0xff, 0xff, 0x00, 0x00, 0x00, 0x09,
  0x74, 0x00, 0x00, 0x00, 0x09, 0x00, 0x00, 0x00, 0x44, 0x00, 0x00, 0x00,
  0x04, 0x00, 0x00, 0x00, 0x5c, 0xfc, 0xff, 0xff, 0x30, 0x00, 0x00, 0x00,
  0x24, 0x00, 0x00, 0x00, 0x18, 0x00, 0x00, 0x00, 0x04, 0x00, 0x00, 0x00,
  0x01, 0x00, 0x00, 0x00, 0x10, 0x00, 0x00, 0x00, 0x00, 0x00, 0x00, 0x00,
  0x00, 0x00, 0x00, 0x00, 0x01, 0x00, 0x00, 0x00, 0x16, 0x3d, 0xb6, 0x3d,
  0x01, 0x00, 0x00, 0x00, 0xfe, 0x5d, 0x1e, 0x41, 0x01, 0x00, 0x00, 0x00,
  0xb4, 0xaf, 0x4c, 0xc1, 0x22, 0x00, 0x00, 0x00, 0x73, 0x65, 0x71, 0x75,
  0x65, 0x6e, 0x74, 0x69, 0x61, 0x6c, 0x5f, 0x37, 0x2f, 0x64, 0x65, 0x6e,
  0x73, 0x65, 0x5f, 0x44, 0x65, 0x6e, 0x73, 0x65, 0x32, 0x31, 0x2f, 0x42,
  0x69, 0x61, 0x73, 0x41, 0x64, 0x64, 0x00, 0x00, 0x02, 0x00, 0x00, 0x00,
  0x01, 0x00, 0x00, 0x00, 0x06, 0x00, 0x00, 0x00, 0x5a, 0xfc, 0xff, 0xff,
  0x00, 0x00, 0x00, 0x09, 0x6c, 0x00, 0x00, 0x00, 0x0b, 0x00, 0x00, 0x00,
  0x40, 0x00, 0x00, 0x00, 0x04, 0x00, 0x00, 0x00, 0xe4, 0xfc, 0xff, 0xff,
  0x2c, 0x00, 0x00, 0x00, 0x20, 0x00, 0x00, 0x00, 0x14, 0x00, 0x00, 0x00,
  0x04, 0x00, 0x00, 0x00, 0x01, 0x00, 0x00, 0x00, 0x80, 0xff, 0xff, 0xff,
  0xff, 0xff, 0xff, 0xff, 0x01, 0x00, 0x00, 0x00, 0x5c, 0x16, 0xf0, 0x3c,
  0x01, 0x00, 0x00, 0x00, 0x46, 0x26, 0xef, 0x40, 0x01, 0x00, 0x00, 0x00,
  0x00, 0x00, 0x00, 0x00, 0x1f, 0x00, 0x00, 0x00, 0x73, 0x65, 0x71, 0x75,
  0x65, 0x6e, 0x74, 0x69, 0x61, 0x6c, 0x5f, 0x37, 0x2f, 0x64, 0x65, 0x6e,
  0x73, 0x65, 0x5f, 0x44, 0x65, 0x6e, 0x73, 0x65, 0x32, 0x30, 0x2f, 0x52,
  0x65, 0x6c, 0x75, 0x00, 0x02, 0x00, 0x00, 0x00, 0x01, 0x00, 0x00, 0x00,
  0x0f, 0x00, 0x00, 0x00, 0xda, 0xfc, 0xff, 0xff, 0x00, 0x00, 0x00, 0x02,
  0x60, 0x00, 0x00, 0x00, 0x03, 0x00, 0x00, 0x00, 0x2c, 0x00, 0x00, 0x00,
  0x04, 0x00, 0x00, 0x00, 0xcc, 0xfc, 0xff, 0xff, 0x18, 0x00, 0x00, 0x00,
  0x04, 0x00, 0x00, 0x00, 0x01, 0x00, 0x00, 0x00, 0x00, 0x00, 0x00, 0x00,
  0x00, 0x00, 0x00, 0x00, 0x00, 0x00, 0x00, 0x00, 0x01, 0x00, 0x00, 0x00,
  0x34, 0xd5, 0x84, 0x38, 0x26, 0x00, 0x00, 0x00, 0x73, 0x65, 0x71, 0x75,
  0x65, 0x6e, 0x74, 0x69, 0x61, 0x6c, 0x5f, 0x37, 0x2f, 0x64, 0x65, 0x6e,
  0x73, 0x65, 0x5f, 0x44, 0x65, 0x6e, 0x73, 0x65, 0x32, 0x30, 0x2f, 0x4d,
  0x61, 0x74, 0x4d, 0x75, 0x6c, 0x5f, 0x62, 0x69, 0x61, 0x73, 0x00, 0x00,
  0x01, 0x00, 0x00, 0x00, 0x0f, 0x00, 0x00, 0x00, 0x4a, 0xfd, 0xff, 0xff,
  0x00, 0x00, 0x00, 0x09, 0x8c, 0x00, 0x00, 0x00, 0x08, 0x00, 0x00, 0x00,
  0x44, 0x00, 0x00, 0x00, 0x04, 0x00, 0x00, 0x00, 0xd4, 0xfd, 0xff, 0xff,
  0x30, 0x00, 0x00, 0x00, 0x24, 0x00, 0x00, 0x00, 0x18, 0x00, 0x00, 0x00,
  0x04, 0x00, 0x00, 0x00, 0x01, 0x00, 0x00, 0x00, 0x00, 0x00, 0x00, 0x00,
  0x00, 0x00, 0x00, 0x00, 0x00, 0x00, 0x00, 0x00, 0x01, 0x00, 0x00, 0x00,
  0x5d, 0x47, 0xe7, 0x3b, 0x01, 0x00, 0x00, 0x00, 0xce, 0x78, 0x65, 0x3f,
  0x01, 0x00, 0x00, 0x00, 0x5d, 0xa8, 0x3c, 0xbf, 0x3a, 0x00, 0x00, 0x00,
  0x73, 0x65, 0x71, 0x75, 0x65, 0x6e, 0x74, 0x69, 0x61, 0x6c, 0x5f, 0x37,
  0x2f, 0x64, 0x65, 0x6e, 0x73, 0x65, 0x5f, 0x44, 0x65, 0x6e, 0x73, 0x65,
  0x32, 0x30, 0x2f, 0x4d, 0x61, 0x74, 0x4d, 0x75, 0x6c, 0x2f, 0x52, 0x65,
  0x61, 0x64, 0x56, 0x61, 0x72, 0x69, 0x61, 0x62, 0x6c, 0x65, 0x4f, 0x70,
  0x2f, 0x74, 0x72, 0x61, 0x6e, 0x73, 0x70, 0x6f, 0x73, 0x65, 0x00, 0x00,
  0x02, 0x00, 0x00, 0x00, 0x0f, 0x00, 0x00, 0x00, 0x32, 0x00, 0x00, 0x00,
  0xea, 0xfd, 0xff, 0xff, 0x00, 0x00, 0x00, 0x09, 0x6c, 0x00, 0x00, 0x00,
  0x0a, 0x00, 0x00, 0x00, 0x40, 0x00, 0x00, 0x00, 0x04, 0x00, 0x00, 0x00,
  0x74, 0xfe, 0xff, 0xff, 0x2c, 0x00, 0x00, 0x00, 0x20, 0x00, 0x00, 0x00,
  0x14, 0x00, 0x00, 0x00, 0x04, 0x00, 0x00, 0x00, 0x01, 0x00, 0x00, 0x00,
  0x80, 0xff, 0xff, 0xff, 0xff, 0xff, 0xff, 0xff, 0x01, 0x00, 0x00, 0x00,
  0xff, 0x07, 0x13, 0x3c, 0x01, 0x00, 0x00, 0x00, 0xf7, 0x74, 0x12, 0x40,
  0x01, 0x00, 0x00, 0x00, 0x00, 0x00, 0x00, 0x00, 0x1f, 0x00, 0x00, 0x00,
  0x73, 0x65, 0x71, 0x75, 0x65, 0x6e, 0x74, 0x69, 0x61, 0x6c, 0x5f, 0x37,
  0x2f, 0x64, 0x65, 0x6e, 0x73, 0x65, 0x5f, 0x44, 0x65, 0x6e, 0x73, 0x65,
  0x31, 0x39, 0x2f, 0x52, 0x65, 0x6c, 0x75, 0x00, 0x02, 0x00, 0x00, 0x00,
  0x01, 0x00, 0x00, 0x00, 0x32, 0x00, 0x00, 0x00, 0x6a, 0xfe, 0xff, 0xff,
  0x00, 0x00, 0x00, 0x02, 0x60, 0x00, 0x00, 0x00, 0x04, 0x00, 0x00, 0x00,
  0x2c, 0x00, 0x00, 0x00, 0x04, 0x00, 0x00, 0x00, 0x5c, 0xfe, 0xff, 0xff,
  0x18, 0x00, 0x00, 0x00, 0x04, 0x00, 0x00, 0x00, 0x01, 0x00, 0x00, 0x00,
  0x00, 0x00, 0x00, 0x00, 0x00, 0x00, 0x00, 0x00, 0x00, 0x00, 0x00, 0x00,
  0x01, 0x00, 0x00, 0x00, 0xac, 0xf5, 0x80, 0x37, 0x26, 0x00, 0x00, 0x00,
  0x73, 0x65, 0x71, 0x75, 0x65, 0x6e, 0x74, 0x69, 0x61, 0x6c, 0x5f, 0x37,
  0x2f, 0x64, 0x65, 0x6e, 0x73, 0x65, 0x5f, 0x44, 0x65, 0x6e, 0x73, 0x65,
  0x31, 0x39, 0x2f, 0x4d, 0x61, 0x74, 0x4d, 0x75, 0x6c, 0x5f, 0x62, 0x69,
  0x61, 0x73, 0x00, 0x00, 0x01, 0x00, 0x00, 0x00, 0x32, 0x00, 0x00, 0x00,
  0xda, 0xfe, 0xff, 0xff, 0x00, 0x00, 0x00, 0x09, 0x88, 0x00, 0x00, 0x00,
  0x07, 0x00, 0x00, 0x00, 0x40, 0x00, 0x00, 0x00, 0x04, 0x00, 0x00, 0x00,
  0x64, 0xff, 0xff, 0xff, 0x2c, 0x00, 0x00, 0x00, 0x20, 0x00, 0x00, 0x00,
  0x14, 0x00, 0x00, 0x00, 0x04, 0x00, 0x00, 0x00, 0x01, 0x00, 0x00, 0x00,
  0x00, 0x00, 0x00, 0x00, 0x00, 0x00, 0x00, 0x00, 0x01, 0x00, 0x00, 0x00,
  0xbe, 0x1d, 0x6c, 0x3b, 0x01, 0x00, 0x00, 0x00, 0xb3, 0x0c, 0xd2, 0x3e,
  0x01, 0x00, 0x00, 0x00, 0x83, 0x45, 0xea, 0xbe, 0x3a, 0x00, 0x00, 0x00,
  0x73, 0x65, 0x71, 0x75, 0x65, 0x6e, 0x74, 0x69, 0x61, 0x6c, 0x5f, 0x37,
  0x2f, 0x64, 0x65, 0x6e, 0x73, 0x65, 0x5f, 0x44, 0x65, 0x6e, 0x73, 0x65,
  0x31, 0x39, 0x2f, 0x4d, 0x61, 0x74, 0x4d, 0x75, 0x6c, 0x2f, 0x52, 0x65,
  0x61, 0x64, 0x56, 0x61, 0x72, 0x69, 0x61, 0x62, 0x6c, 0x65, 0x4f, 0x70,
  0x2f, 0x74, 0x72, 0x61, 0x6e, 0x73, 0x70, 0x6f, 0x73, 0x65, 0x00, 0x00,
  0x02, 0x00, 0x00, 0x00, 0x32, 0x00, 0x00, 0x00, 0x78, 0x00, 0x00, 0x00,
  0x76, 0xff, 0xff, 0xff, 0x00, 0x00, 0x00, 0x09, 0x74, 0x00, 0x00, 0x00,
  0x06, 0x00, 0x00, 0x00, 0x4c, 0x00, 0x00, 0x00, 0x10, 0x00, 0x00, 0x00,
  0x0c, 0x00, 0x14, 0x00, 0x04, 0x00, 0x08, 0x00, 0x0c, 0x00, 0x10, 0x00,
  0x0c, 0x00, 0x00, 0x00, 0x2c, 0x00, 0x00, 0x00, 0x20, 0x00, 0x00, 0x00,
  0x14, 0x00, 0x00, 0x00, 0x04, 0x00, 0x00, 0x00, 0x01, 0x00, 0x00, 0x00,
  0x0c, 0x00, 0x00, 0x00, 0x00, 0x00, 0x00, 0x00, 0x01, 0x00, 0x00, 0x00,
  0xd2, 0xd1, 0x8b, 0x3b, 0x01, 0x00, 0x00, 0x00, 0x00, 0x1c, 0xfb, 0x3e,
  0x01, 0x00, 0x00, 0x00, 0x00, 0xfe, 0x18, 0xbf, 0x18, 0x00, 0x00, 0x00,
  0x64, 0x65, 0x6e, 0x73, 0x65, 0x5f, 0x44, 0x65, 0x6e, 0x73, 0x65, 0x31,
  0x39, 0x5f, 0x69, 0x6e, 0x70, 0x75, 0x74, 0x5f, 0x69, 0x6e, 0x74, 0x38,
  0x00, 0x00, 0x00, 0x00, 0x02, 0x00, 0x00, 0x00, 0x01, 0x00, 0x00, 0x00,
  0x78, 0x00, 0x00, 0x00, 0x00, 0x00, 0x0e, 0x00, 0x18, 0x00, 0x08, 0x00,
  0x07, 0x00, 0x0c, 0x00, 0x10, 0x00, 0x14, 0x00, 0x0e, 0x00, 0x00, 0x00,
  0x00, 0x00, 0x00, 0x09, 0x54, 0x00, 0x00, 0x00, 0x05, 0x00, 0x00, 0x00,
  0x38, 0x00, 0x00, 0x00, 0x10, 0x00, 0x00, 0x00, 0x0c, 0x00, 0x0c, 0x00,
  0x00, 0x00, 0x00, 0x00, 0x04, 0x00, 0x08, 0x00, 0x0c, 0x00, 0x00, 0x00,
  0x18, 0x00, 0x00, 0x00, 0x04, 0x00, 0x00, 0x00, 0x01, 0x00, 0x00, 0x00,
  0x80, 0xff, 0xff, 0xff, 0xff, 0xff, 0xff, 0xff, 0x00, 0x00, 0x00, 0x00,
  0x01, 0x00, 0x00, 0x00, 0x00, 0x00, 0x80, 0x3b, 0x0d, 0x00, 0x00, 0x00,
  0x49, 0x64, 0x65, 0x6e, 0x74, 0x69, 0x74, 0x79, 0x5f, 0x69, 0x6e, 0x74,
  0x38, 0x00, 0x00, 0x00, 0x02, 0x00, 0x00, 0x00, 0x01, 0x00, 0x00, 0x00,
  0x06, 0x00, 0x00, 0x00, 0x04, 0x00, 0x00, 0x00, 0x4c, 0x00, 0x00, 0x00,
  0x30, 0x00, 0x00, 0x00, 0x1c, 0x00, 0x00, 0x00, 0x04, 0x00, 0x00, 0x00,
  0xe6, 0xff, 0xff, 0xff, 0x00, 0x00, 0x00, 0x06, 0x02, 0x00, 0x00, 0x00,
  0x00, 0x00, 0x06, 0x00, 0x06, 0x00, 0x05, 0x00, 0x06, 0x00, 0x00, 0x00,
  0x00, 0x72, 0x0a, 0x00, 0x0e, 0x00, 0x07, 0x00, 0x00, 0x00, 0x08, 0x00,
  0x0a, 0x00, 0x00, 0x00, 0x00, 0x00, 0x00, 0x19, 0x02, 0x00, 0x00, 0x00,
  0x00, 0x00, 0x0a, 0x00, 0x0c, 0x00, 0x07, 0x00, 0x00, 0x00, 0x08, 0x00,
  0x0a, 0x00, 0x00, 0x00, 0x00, 0x00, 0x00, 0x09, 0x04, 0x00, 0x00, 0x00

};